[PAD]	0
[UNK]	0
[BOS]	0
[EOS]	0
▁क	-0
या	-1
▁स	-2
▁म	-3
्या	-4
▁प	-5
्र	-6
▁आ	-7
▁ह	-8
ार	-9
▁त	-10
▁व	-11
▁के	-12
▁द	-13
▁अ	-14
▁न	-15
▁ज	-16
र्	-17
्य	-18
ला	-19
ान	-20
▁ब	-21
ें	-22
▁र	-23
ों	-24
▁उ	-25
▁कर	-26
▁ल	-27
▁है	-28
ने	-29
ता	-30
▁प्र	-31
िक	-32
ां	-33
▁औ	-34
ले	-35
▁और	-36
▁भ	-37
ना	-38
ित	-39
▁ग	-40
▁में	-41
च्या	-42
▁को	-43
वा	-44
▁श	-45
▁य	-46
ंत	-47
ात	-48
्ह	-49
क्	-50
▁.	-51
▁की	-52
स्	-53
हे	-54
▁का	-55
▁ए	-56
▁पर	-57
▁कि	-58
▁या	-59
▁आहे	-60
▁से	-61
्व	-62
▁आण	-63
▁इ	-64
चा	-65
सा	-66
ेश	-67
▁हो	-68
ती	-69
▁आणि	-70
ही	-71
ली	-72
चे	-73
▁सं	-74
▁त्या	-75
िए	-76
ून	-77
▁वि	-78
▁रा	-79
ते	-80
ल्या	-81
्री	-82
▁एक	-83
्ट	-84
से	-85
ण्या	-86
नी	-87
ची	-88
▁दि	-89
▁,	-90
▁लिए	-91
हा	-92
ोग	-93
▁सा	-94
क्ष	-95
रा	-96
त्	-97
▁दे	-98
▁ने	-99
मा	-100
▁नि	-101
▁ख	-102
री	-103
▁जा	-104
ति	-105
ष्ट	-106
▁च	-107
ठी	-108
▁स्	-109
गा	-110
▁हैं	-111
▁वा	-112
ंद	-113
▁तु	-114
▁मा	-115
णा	-116
▁घ	-117
▁भार	-118
्रा	-119
कार	-120
▁सु	-121
▁आप	-122
▁पा	-123
वर	-124
साठी	-125
ध्य	-126
के	-127
वि	-128
ेत	-129
▁2	-130
▁इस	-131
द्	-132
िय	-133
▁उन	-134
▁सम	-135
ड़	-136
ल्	-137
▁ना	-138
▁ते	-139
▁थ	-140
▁यह	-141
का	-142
िया	-143
▁फ	-144
धान	-145
्ष	-146
▁।	-147
ास	-148
ील	-149
▁कार	-150
▁ला	-151
▁अप	-152
▁तुम	-153
र्व	-154
▁मु	-155
▁राज	-156
ाने	-157
▁मंत	-158
ोज	-159
▁जो	-160
▁अस	-161
मी	-162
▁त्यां	-163
▁पु	-164
ोक	-165
▁म्ह	-166
रे	-167
प्र	-168
▁ड	-169
स्थ	-170
स्त	-171
▁देश	-172
ारी	-173
▁उप	-174
▁1	-175
दी	-176
▁किया	-177
वी	-178
▁बा	-179
िन	-180
ंग	-181
▁मह	-182
ारा	-183
▁भी	-184
ंड	-185
▁हम	-186
▁20	-187
▁ट	-188
ध्ये	-189
कर	-190
▁झ	-191
▁उस	-192
की	-193
▁करने	-194
▁क्ष	-195
▁भारत	-196
▁करण्या	-197
वे	-198
्यां	-199
दा	-200
▁मि	-201
भा	-202
ार्	-203
सी	-204
▁लोक	-205
ारे	-206
णे	-207
च्	-208
▁अध	-209
द्ध	-210
▁मो	-211
▁अन	-212
▁तो	-213
▁(	-214
मध्ये	-215
टी	-216
▁वे	-217
▁साथ	-218
्हा	-219
मु	-220
श्	-221
▁सर	-222
▁हे	-223
▁ध	-224
▁ये	-225
ेल	-226
णी	-227
▁आज	-228
▁मी	-229
▁यां	-230
्रीय	-231
▁तर	-232
▁भा	-233
▁पू	-234
▁हा	-235
हीं	-236
▁स्व	-237
ैं	-238
▁उन्ह	-239
देश	-240
शी	-241
शा	-242
▁विक	-243
▁सर्व	-244
▁स्थ	-245
▁कहा	-246
र्ष	-247
ूप	-248
ियों	-249
▁झा	-250
तो	-251
र्ण	-252
▁ले	-253
▁नहीं	-254
▁आहेत	-255
▁उत्	-256
▁दो	-257
▁क्षेत	-258
▁अधिक	-259
▁व्य	-260
▁मे	-261
ंध	-262
ओं	-263
▁असे	-264
▁केले	-265
बर	-266
लय	-267
्ही	-268
पा	-269
▁नाही	-270
र्थ	-271
रु	-272
▁सरकार	-273
▁ही	-274
्ञ	-275
मान	-276
क्र	-277
▁परि	-278
ळे	-279
तर	-280
ांग	-281
ाप	-282
▁केंद	-283
▁कु	-284
▁राष्ट	-285
जा	-286
क्त	-287
ांना	-288
▁चा	-289
गे	-290
न्	-291
बा	-292
त्र	-293
र्य	-294
गी	-295
भी	-296
तील	-297
▁था	-298
▁पह	-299
िर	-300
पू	-301
▁दु	-302
▁मैं	-303
कि	-304
▁क्षेत्र	-305
तात	-306
▁अपने	-307
▁म्हण	-308
▁आम	-309
▁गया	-310
▁201	-311
द्य	-312
▁जि	-313
▁सह	-314
▁हु	-315
▁जी	-316
मेश	-317
▁ठ	-318
्त	-319
ाना	-320
ढ़	-321
कड	-322
▁वह	-323
योग	-324
▁निर्	-325
जी	-326
▁मंत्री	-327
प्रधान	-328
धी	-329
ंतप्रधान	-330
िम	-331
▁पंतप्रधान	-332
मेश्व	-333
ोंने	-334
▁वर्ष	-335
▁परमेश्व	-336
ंतर	-337
▁काम	-338
▁तक	-339
▁प्रधान	-340
ाय	-341
चार	-342
▁लोग	-343
खा	-344
ंत्र	-345
िला	-346
गर	-347
क्षा	-348
लेल्या	-349
णार	-350
▁द्व	-351
▁रु	-352
धार	-353
ूर	-354
िती	-355
▁उन्होंने	-356
▁गु	-357
गत	-358
च्छ	-359
▁छ	-360
00	-361
▁कार्य	-362
द्र	-363
मुळे	-364
जे	-365
▁होते	-366
दान	-367
तीय	-368
▁प्रति	-369
▁अनु	-370
त्य	-371
▁श्री	-372
बंध	-373
▁आपल्या	-374
ूं	-375
▁“	-376
▁मंत्रा	-377
ब्	-378
शे	-379
▁ती	-380
▁दिया	-381
ऱ्या	-382
▁राज्य	-383
नि	-384
▁जात	-385
▁सभी	-386
सार	-387
▁रूप	-388
▁माझ	-389
हर	-390
▁म्हणा	-391
ोल	-392
िल	-393
ित्र	-394
ेट	-395
▁आय	-396
ळा	-397
ज्ञ	-398
▁सक	-399
ांनी	-400
वास	-401
ईल	-402
सर	-403
ोजना	-404
ेव	-405
▁बी	-406
▁विकास	-407
थे	-408
नों	-409
ोर	-410
ोध	-411
डी	-412
▁बन	-413
▁मान	-414
ळी	-415
ुन	-416
्म	-417
विध	-418
माण	-419
ातील	-420
िका	-421
ण्यासाठी	-422
▁सि	-423
▁भारतीय	-424
टर	-425
▁गो	-426
▁देख	-427
पी	-428
त्व	-429
ांच्या	-430
िक्ष	-431
▁-	-432
▁सी	-433
▁व्या	-434
▁सांग	-435
ष्	-436
▁नवी	-437
▁केली	-438
▁आव	-439
▁शक	-440
ंब	-441
▁ऐ	-442
▁लोगों	-443
ुर	-444
▁त्यांनी	-445
▁मंत्रालय	-446
▁जाए	-447
▁सुर	-448
ानी	-449
स्ट	-450
▁पी	-451
ूत	-452
▁स्वा	-453
▁ओ	-454
पर	-455
▁अव	-456
▁करते	-457
▁3	-458
▁बढ़	-459
शन	-460
पास	-461
द्या	-462
हि	-463
पूर्ण	-464
्यों	-465
दल	-466
▁होता	-467
र्म	-468
▁द्वारा	-469
20	-470
ल्ली	-471
एल	-472
▁राष्ट्र	-473
▁ऑ	-474
▁केंद्र	-475
▁अभ	-476
श्य	-477
▁करता	-478
▁दा	-479
ेक	-480
द्योग	-481
▁हुए	-482
▁जब	-483
▁गे	-484
क्षण	-485
▁दी	-486
▁मोदी	-487
▁बह	-488
";	-489
▁”	-490
को	-491
्यात	-492
कृ	-493
▁दिल्ली	-494
▁कारण	-495
▁भू	-496
ेंद्र	-497
▁तू	-498
▁थे	-499
झे	-500
वन	-501
क्रम	-502
▁संबंध	-503
▁परमेश्वर	-504
्न	-505
▁प्रा	-506
▁राजा	-507
▁पो	-508
▁खा	-509
▁सो	-510
श्व	-511
▁म्हणून	-512
जन	-513
ण्यात	-514
▁यांनी	-515
▁समा	-516
▁ऊ	-517
चित	-518
दे	-519
दि	-520
ध्यम	-521
▁मू	-522
▁घे	-523
▁शा	-524
▁उसके	-525
ल्प	-526
▁तुम्ही	-527
▁साम	-528
्स	-529
एस	-530
मंत	-531
▁मार्	-532
रो	-533
र्यंत	-534
▁यु	-535
▁मला	-536
किन	-537
दर्	-538
▁तसे	-539
▁काही	-540
▁पि	-541
▁चाह	-542
▁वै	-543
▁गए	-544
▁करण्यात	-545
सं	-546
▁दिव	-547
▁नर	-548
वस्थ	-549
त्या	-550
श्यक	-551
▁शि	-552
▁जे	-553
लो	-554
▁योग	-555
19	-556
▁तुम्ह	-557
वळ	-558
▁मद	-559
मंत्री	-560
▁केंद्रीय	-561
ौर	-562
▁लेकिन	-563
िज	-564
में	-565
▁यहो	-566
▁जै	-567
ांचे	-568
▁योजना	-569
ुत	-570
िट	-571
शेष	-572
लों	-573
▁वाढ	-574
▁त्यांना	-575
▁उनके	-576
▁करण्यासाठी	-577
▁केला	-578
▁नरेंद्र	-579
▁ई	-580
▁आवश्यक	-581
कडे	-582
▁अपनी	-583
ज्ञान	-584
यु	-585
वेश	-586
बी	-587
िंग	-588
▁5	-589
▁त्यांच्या	-590
व्हा	-591
ठा	-592
▁राष्ट्रीय	-593
▁भाग	-594
▁सेवा	-595
क्ति	-596
▁तसेच	-597
▁उद्	-598
▁कम	-599
▁बना	-600
▁क्यों	-601
▁सू	-602
▁घर	-603
▁महा	-604
ेंगे	-605
▁इन	-606
हन	-607
पाद	-608
एम	-609
▁प्रत्य	-610
टा	-611
▁जिस	-612
▁यांच्या	-613
▁इस्रा	-614
पासून	-615
वाद	-616
▁गा	-617
▁आर	-618
▁उन्हें	-619
▁हि	-620
वार	-621
ये	-622
▁बै	-623
▁कृ	-624
▁ता	-625
▁लाग	-626
ड़ा	-627
विष	-628
▁विशेष	-629
ष्टी	-630
ऊन	-631
▁होती	-632
▁लग	-633
▁पास	-634
ेर	-635
कों	-636
हत	-637
▁माध्यम	-638
डा	-639
▁करा	-640
करण	-641
▁देव	-642
्यान	-643
ंज	-644
▁मिळ	-645
वर्	-646
▁रहे	-647
▁भारता	-648
जार	-649
▁रहा	-650
▁मन	-651
ग्	-652
▁हमारे	-653
▁ज्या	-654
▁आले	-655
वान	-656
दार	-657
यों	-658
▁लाभ	-659
▁रुप	-660
▁पुर	-661
▁माझ्या	-662
ोन	-663
च्च	-664
ग्र	-665
▁तेव्हा	-666
▁अब	-667
▁बीच	-668
▁अर्थ	-669
▁म्हणाले	-670
▁आता	-671
ांची	-672
▁शिक्ष	-673
णाऱ्या	-674
▁क्योंकि	-675
▁निर्माण	-676
▁बात	-677
▁ह्या	-678
टन	-679
मध	-680
▁दोन	-681
▁निय	-682
ख्य	-683
▁शु	-684
▁भर	-685
हो	-686
▁उसे	-687
र्ग	-688
मि	-689
ख्या	-690
▁बे	-691
▁दृ	-692
▁व्याप	-693
ोड़	-694
▁सब	-695
▁गई	-696
▁उत्पाद	-697
▁जन	-698
ंप	-699
▁लाख	-700
▁रख	-701
िस	-702
▁पण	-703
▁हूं	-704
▁हर	-705
हार	-706
ांचा	-707
▁पै	-708
▁‘	-709
▁वित	-710
▁संस्थ	-711
▁सांगित	-712
▁करत	-713
▁घेत	-714
श्वास	-715
▁इस्राएल	-716
▁जाता	-717
▁आम्ही	-718
▁करना	-719
▁लक्ष	-720
▁मेरे	-721
▁रेल	-722
▁प्रश	-723
व्य	-724
ोत्	-725
▁खु	-726
▁थी	-727
▁दर	-728
▁नव	-729
▁तरह	-730
्रे	-731
▁चाहिए	-732
▁डॉ	-733
▁त्याच्या	-734
▁यहोवा	-735
▁दूर	-736
ूस	-737
▁दिन	-738
▁माह	-739
▁पूर्व	-740
मार	-741
▁मुझे	-742
िप	-743
ांत	-744
रण	-745
▁:	-746
▁किं	-747
▁समय	-748
▁विचार	-749
▁इंड	-750
▁4	-751
▁सुविध	-752
▁प्रकार	-753
▁रह	-754
▁";	-755
▁परमेश्वरा	-756
▁त्याला	-757
ार्थ	-758
▁करे	-759
▁राह	-760
टे	-761
▁कुछ	-762
बत	-763
▁झाले	-764
▁काय	-765
र्जा	-766
ुष	-767
▁मंद	-768
▁प्रदेश	-769
▁बाद	-770
ूक	-771
भाव	-772
▁जर	-773
यी	-774
▁होगा	-775
ंगा	-776
▁नी	-777
▁आपण	-778
▁स्ट	-779
▁शहर	-780
▁प्रत्येक	-781
पर्यंत	-782
▁महत्व	-783
▁2020	-784
▁बोल	-785
▁उसने	-786
▁मज	-787
ंना	-788
▁कोई	-789
▁पहले	-790
▁कमी	-791
▁जाएगा	-792
र्थिक	-793
▁जीवन	-794
▁जग	-795
▁तुझ	-796
स्ता	-797
▁स्थान	-798
लया	-799
यार	-800
▁अंत	-801
▁मंत्र	-802
▁ठेव	-803
नेक	-804
▁प्रदान	-805
ोबर	-806
शि	-807
कल्प	-808
▁पाहि	-809
▁प्रधानमंत्री	-810
-19	-811
▁अनेक	-812
ातून	-813
▁बु	-814
भाग	-815
▁उपल	-816
▁घा	-817
ड़ी	-818
ात्र	-819
▁बहुत	-820
ब्ध	-821
पे	-822
ोजन	-823
्यांना	-824
▁महिला	-825
▁उद्योग	-826
लन	-827
▁सांगितले	-828
▁उपलब्ध	-829
तिक	-830
श्चित	-831
▁आर्थिक	-832
▁अम	-833
▁स्थाप	-834
▁येथे	-835
▁कोवि	-836
▁बि	-837
▁माहिती	-838
डे	-839
▁देवा	-840
▁वाले	-841
▁समु	-842
ांमध्ये	-843
▁रोज	-844
मुख	-845
▁सकता	-846
▁किए	-847
ंच	-848
▁होईल	-849
▁बैठ	-850
▁किंवा	-851
▁रोग	-852
भर	-853
▁पार	-854
▁विश्वास	-855
▁कह	-856
▁अशा	-857
▁?	-858
ड़े	-859
लि	-860
्हाला	-861
दारी	-862
▁सुधार	-863
▁कार्या	-864
▁जल	-865
हाँ	-866
▁त्याने	-867
क्ट	-868
▁तीन	-869
▁2018	-870
▁उत्तर	-871
▁पुन	-872
▁असेल	-873
राष्ट	-874
▁’	-875
▁पूर्ण	-876
▁लोकांना	-877
युक्त	-878
▁कार्यक्रम	-879
▁आरोग	-880
र्प	-881
▁रो	-882
▁दिवस	-883
▁होने	-884
▁2019	-885
▁मग	-886
माणे	-887
▁मार्ग	-888
्यू	-889
▁कई	-890
▁सुविधा	-891
▁फिर	-892
▁जु	-893
▁अन्य	-894
ुक	-895
▁उपयोग	-896
▁पर्य	-897
▁आत्	-898
▁कै	-899
खी	-900
▁अध्य	-901
भार	-902
पट	-903
वात	-904
क्ती	-905
▁ति	-906
▁वाट	-907
च्छा	-908
▁7	-909
द्दल	-910
▁6	-911
ंचा	-912
▁दिले	-913
घा	-914
वल	-915
▁तुमच्या	-916
▁स्वत	-917
मिक	-918
▁भग	-919
आर	-920
▁तंत्र	-921
म्	-922
जर	-923
सान	-924
था	-925
▁गोष्टी	-926
ृद्ध	-927
▁C	-928
▁आली	-929
▁म्हणजे	-930
निया	-931
प्रमाणे	-932
चना	-933
ण्याची	-934
▁कॉ	-935
ताओं	-936
▁असल्या	-937
बरोबर	-938
▁असून	-939
▁पुढ	-940
▁आधार	-941
प्	-942
▁असा	-943
▁म्हणाला	-944
▁जान	-945
द्व	-946
▁मुख्य	-947
दर	-948
▁दिली	-949
यत्	-950
ैन	-951
▁यात	-952
▁कोटी	-953
▁संर	-954
▁प्राप	-955
▁स्त	-956
▁ग्रा	-957
वस्था	-958
बद्दल	-959
▁चांग	-960
▁व्यक्त	-961
▁इसके	-962
लिए	-963
ज़	-964
▁मजब	-965
▁करेगा	-966
▁सहकार	-967
▁महत्	-968
▁स्वच्छ	-969
नो	-970
ंतु	-971
▁खूप	-972
▁इंडिया	-973
▁क्र	-974
▁प्रमुख	-975
ष्ठ	-976
▁माण	-977
लेले	-978
▁आरोग्य	-979
▁पुत्र	-980
▁एका	-981
▁डा	-982
▁इसलिए	-983
भव	-984
▁)	-985
▁ची	-986
ोष	-987
▁चाल	-988
िव	-989
्याय	-990
स्थ्य	-991
▁चर्	-992
▁करोड़	-993
▁करी	-994
▁सर्	-995
िकी	-996
टक	-997
▁यहू	-998
▁क्या	-999
▁काळ	-1000
शु	-1001
वित्र	-1002
िमंड	-1003
▁दर्	-1004
ंक	-1005
स्य	-1006
धा	-1007
▁हाथ	-1008
हाय	-1009
▁वी	-1010
धन	-1011
▁इतर	-1012
▁रुपये	-1013
▁स्वास्थ्य	-1014
▁सार	-1015
▁नागर	-1016
▁मंदिर	-1017
▁जाते	-1018
▁क्षम	-1019
▁रुग्	-1020
▁प्राप्त	-1021
र्ट	-1022
वरण	-1023
▁सद	-1024
▁गर	-1025
▁राष्ट्रप	-1026
▁प्रयत्	-1027
▁अति	-1028
▁करतो	-1029
गार	-1030
▁सकते	-1031
▁तब	-1032
्वे	-1033
तम	-1034
▁मजबूत	-1035
▁पंतप्रधानांनी	-1036
▁बो	-1037
▁महत्वपूर्ण	-1038
ेशन	-1039
वण	-1040
▁जिन	-1041
ंच्या	-1042
▁चार	-1043
▁अंतर	-1044
▁मंज	-1045
▁अध्यक्ष	-1046
▁विष	-1047
▁झाली	-1048
▁देशा	-1049
▁असलेल्या	-1050
▁टा	-1051
▁नागरिक	-1052
▁मोठ	-1053
▁कार्यालय	-1054
▁दौर	-1055
▁सुरक्षा	-1056
ांस	-1057
▁कोविड	-1058
र्गत	-1059
▁कृष	-1060
▁ऊर्जा	-1061
▁रही	-1062
आई	-1063
▁बारे	-1064
▁प्रयत्न	-1065
▁सहयोग	-1066
▁सुरु	-1067
्यांनी	-1068
▁विविध	-1069
ंट	-1070
▁नाम	-1071
मे	-1072
शल	-1073
▁किसी	-1074
वेळी	-1075
▁स्प	-1076
▁मंत्रिमंड	-1077
▁बढ़ा	-1078
▁सबसे	-1079
▁मैंने	-1080
वले	-1081
वरी	-1082
▁वस्त	-1083
▁देखील	-1084
ढा	-1085
▁पाठ	-1086
र्त	-1087
▁बदल	-1088
▁संबंधित	-1089
▁पवित्र	-1090
▁जाने	-1091
मिल	-1092
कट	-1093
▁अवसर	-1094
▁चे	-1095
▁बां	-1096
▁दुनिया	-1097
▁मित्र	-1098
▁आन	-1099
▁भगवान	-1100
▁आला	-1101
▁दौरान	-1102
▁नियम	-1103
▁होत	-1104
▁समझ	-1105
नात	-1106
▁श्र	-1107
▁हवा	-1108
ात्म	-1109
▁मदत	-1110
यक	-1111
▁हजार	-1112
▁जास्त	-1113
▁पड	-1114
▁व्यापार	-1115
▁मिल	-1116
▁जेव	-1117
000	-1118
▁इसे	-1119
वून	-1120
यन	-1121
एं	-1122
▁लि	-1123
▁महाम	-1124
ुरू	-1125
ांसाठी	-1126
यर	-1127
काश	-1128
▁दोनों	-1129
▁केल्या	-1130
▁हमें	-1131
▁व्यक्ति	-1132
ूल	-1133
▁करून	-1134
▁गरी	-1135
▁परिष	-1136
वड	-1137
दर्श	-1138
▁देने	-1139
भग	-1140
सि	-1141
क्षी	-1142
कडून	-1143
िन्न	-1144
▁आगे	-1145
▁करेंगे	-1146
▁वापर	-1147
▁बार	-1148
▁ओर	-1149
▁कौ	-1150
▁मध्ये	-1151
▁तरी	-1152
यास	-1153
र्स	-1154
▁ज्ञ	-1155
न्न	-1156
▁चित्र	-1157
व्या	-1158
▁19	-1159
बाबत	-1160
▁अशी	-1161
▁शरी	-1162
▁तुम्हाला	-1163
▁कल्या	-1164
ंची	-1165
ूरी	-1166
▁10	-1167
स्ते	-1168
▁विकस	-1169
▁स्थित	-1170
▁उनकी	-1171
▁8	-1172
▁तुझ्या	-1173
▁झाला	-1174
जू	-1175
▁येत	-1176
ूंगा	-1177
▁संप	-1178
▁एम	-1179
▁सामा	-1180
▁खिला	-1181
▁चर्चा	-1182
▁करणे	-1183
▁कोण	-1184
▁माम	-1185
▁क्षमता	-1186
▁शुरू	-1187
मधील	-1188
ंदर	-1189
▁मुल	-1190
ियन	-1191
▁एन	-1192
ID	-1193
ेड	-1194
शोध	-1195
▁चु	-1196
▁विभाग	-1197
▁जैसे	-1198
▁तहत	-1199
▁प्रभ	-1200
▁निर्म	-1201
स्कृ	-1202
▁आवा	-1203
▁आया	-1204
▁आवश्यकता	-1205
▁निर	-1206
ध्या	-1207
जिक	-1208
आय	-1209
▁9	-1210
▁सौ	-1211
▁फि	-1212
▁पहु	-1213
▁विकसित	-1214
▁लिया	-1215
▁क्षेत्रात	-1216
हास	-1217
▁धन	-1218
▁आद	-1219
▁शे	-1220
नंतर	-1221
▁पाया	-1222
्यांच्या	-1223
▁दिला	-1224
▁बांध	-1225
▁आई	-1226
▁हुआ	-1227
▁निर्ण	-1228
39	-1229
▁भे	-1230
स्कार	-1231
शील	-1232
▁साल	-1233
▁व्यव	-1234
▁संरक्षण	-1235
ात्मक	-1236
▁आनंद	-1237
▁तयार	-1238
ोजित	-1239
▁उत्पादन	-1240
▁मौ	-1241
▁सां	-1242
ुल	-1243
पूर्व	-1244
▁भविष	-1245
श्च	-1246
▁आमच्या	-1247
▁विभ	-1248
ंभ	-1249
▁संयुक्त	-1250
▁रेल्वे	-1251
▁गरीब	-1252
▁निक	-1253
▁आपके	-1254
▁शामिल	-1255
▁पे	-1256
▁महान	-1257
▁मिळा	-1258
▁परिय	-1259
त्ती	-1260
▁प्रोत्	-1261
▁CO	-1262
▁विभिन्न	-1263
▁कंप	-1264
स्थित	-1265
▁प्रोत्सा	-1266
ियम	-1267
▁करें	-1268
▁विश्व	-1269
वाय	-1270
▁ब्र	-1271
▁परियोजना	-1272
▁कल्याण	-1273
▁पाहिजे	-1274
ृह	-1275
पणे	-1276
▁सार्व	-1277
VID	-1278
रिक	-1279
▁नवीन	-1280
ंह	-1281
▁युवा	-1282
धे	-1283
▁मूल	-1284
▁यासाठी	-1285
ोट	-1286
▁पाह	-1287
ाती	-1288
क्षित	-1289
▁लगभग	-1290
▁देशात	-1291
▁प्रक्र	-1292
▁शिक्षा	-1293
▁लॉ	-1294
▁आदि	-1295
षण	-1296
वत	-1297
पुर	-1298
इन	-1299
्रो	-1300
स्प	-1301
▁मार	-1302
बद्ध	-1303
▁परंतु	-1304
▁प्रयास	-1305
▁दोन्ही	-1306
▁COVID	-1307
▁15	-1308
▁पद	-1309
▁सच	-1310
▁मुला	-1311
▁2017	-1312
▁ढ	-1313
कीय	-1314
▁१	-1315
तन	-1316
▁ऑफ	-1317
गतिक	-1318
▁संशोध	-1319
▁बस	-1320
▁पृ	-1321
ण्याचा	-1322
ैस	-1323
▁बनाने	-1324
▁पर्या	-1325
▁तै	-1326
&#	-1327
39;	-1328
&#39;	-1329
ुष्य	-1330
प्त	-1331
▁संख्या	-1332
▁क्षेत्रों	-1333
▁हों	-1334
▁उच्च	-1335
ंगे	-1336
▁असते	-1337
करी	-1338
▁अर्थव्य	-1339
▁सहाय	-1340
▁दुस	-1341
विषयी	-1342
▁आज्ञ	-1343
▁माल	-1344
▁खिलाफ	-1345
▁जागतिक	-1346
लेम	-1347
णाम	-1348
▁टक्	-1349
▁कराय	-1350
णारे	-1351
ण्याचे	-1352
▁I	-1353
▁अधिकार	-1354
▁जाती	-1355
▁येश	-1356
▁वेग	-1357
▁सामाजिक	-1358
ोजने	-1359
▁;	-1360
▁परी	-1361
▁आयोजित	-1362
▁आक	-1363
निश्चित	-1364
खे	-1365
▁जीव	-1366
▁जारी	-1367
▁बच्च	-1368
▁ट्र	-1369
्वी	-1370
▁प्रभाव	-1371
▁कर्म	-1372
▁हमारी	-1373
▁अपना	-1374
▁दृष्ट	-1375
▁नई	-1376
▁पिछ	-1377
▁देशों	-1378
▁नौ	-1379
वारी	-1380
▁नेत	-1381
▁सुनिश्चित	-1382
▁गां	-1383
▁विज्ञान	-1384
▁येशू	-1385
▁भूमि	-1386
▁केवल	-1387
▁पानी	-1388
म्म	-1389
्ल	-1390
▁अग	-1391
ताना	-1392
▁सात	-1393
▁जेव्हा	-1394
ासन	-1395
▁मृ	-1396
▁पिता	-1397
▁विस्त	-1398
▁बच्चों	-1399
धिक	-1400
ंचे	-1401
▁शिक	-1402
ियान	-1403
▁तुम्हारे	-1404
ल्म	-1405
जनिक	-1406
▁करुन	-1407
ांवर	-1408
धि	-1409
▁मदद	-1410
शलेम	-1411
एफ	-1412
ुसार	-1413
▁यो	-1414
खर	-1415
▁किसान	-1416
▁चौ	-1417
▁औष	-1418
ांड	-1419
फा	-1420
▁आहो	-1421
▁विद्या	-1422
▁सार्वजनिक	-1423
▁कान	-1424
▁केलेल्या	-1425
▁त्याचे	-1426
क्षम	-1427
ळ्या	-1428
▁योग्य	-1429
▁देण्यात	-1430
▁भागी	-1431
▁आस	-1432
▁सैन	-1433
▁परिणाम	-1434
ध्	-1435
▁आए	-1436
▁आहोत	-1437
▁देता	-1438
▁योजने	-1439
मो	-1440
द्वारे	-1441
चन	-1442
▁वर	-1443
वासी	-1444
▁बाहर	-1445
▁कर्	-1446
▁उद्देश	-1447
▁ऐक	-1448
▁प्रे	-1449
▁तुला	-1450
ित्	-1451
▁आपले	-1452
कारी	-1453
▁आदमी	-1454
▁दाख	-1455
क्स	-1456
पूर	-1457
▁पूरा	-1458
ेंट	-1459
▁यहाँ	-1460
▁प्रसार	-1461
राष्ट्रीय	-1462
▁प्रशिक्ष	-1463
▁घोष	-1464
▁प्रकल्प	-1465
ज्	-1466
▁संपूर्ण	-1467
▁होतो	-1468
हरा	-1469
हित	-1470
▁उपाय	-1471
▁झाल्या	-1472
▁यात्रा	-1473
▁प्रग	-1474
▁अल	-1475
▁बता	-1476
▁जवळ	-1477
▁घेऊन	-1478
ंबई	-1479
▁संघ	-1480
ंनी	-1481
▁संब	-1482
▁दूस	-1483
▁अनुसार	-1484
र्क	-1485
▁इत	-1486
वक	-1487
▁वृद्ध	-1488
▁झालेल्या	-1489
▁असल्याचे	-1490
चल	-1491
▁उसकी	-1492
▁आज्ञा	-1493
▁महारा	-1494
ब्द	-1495
▁मंत्रालया	-1496
▁दक्ष	-1497
एँ	-1498
ाते	-1499
▁डिज	-1500
▁शेत	-1501
▁निर्णय	-1502
भे	-1503
▁गुजर	-1504
ग्रह	-1505
▁परिवार	-1506
▁शरीर	-1507
मीण	-1508
▁याह	-1509
ंदा	-1510
▁वन	-1511
▁टी	-1512
▁नाहीत	-1513
▁पृथ	-1514
्याने	-1515
▁मै	-1516
▁प्रमाण	-1517
पै	-1518
शिया	-1519
▁भूम	-1520
टु	-1521
तीने	-1522
▁गर्	-1523
▁करु	-1524
तिहास	-1525
▁बैठक	-1526
▁फिल्म	-1527
ेंबर	-1528
▁इं	-1529
एन	-1530
▁आंतर	-1531
सम	-1532
▁जाईल	-1533
▁गेल्या	-1534
▁स्वी	-1535
र्ड	-1536
▁पाप	-1537
▁पृथ्वी	-1538
▁हिस्	-1539
ापन	-1540
रुष	-1541
्याच्या	-1542
▁गति	-1543
▁प्रौ	-1544
▁होणार	-1545
▁संधी	-1546
▁12	-1547
▁मेरी	-1548
▁प्रक्रिया	-1549
ट्ट	-1550
▁अला	-1551
▁नदी	-1552
देशी	-1553
▁गेले	-1554
▁एव	-1555
▁चिक	-1556
िटल	-1557
त्ता	-1558
▁यदि	-1559
▁संबोध	-1560
▁तेल	-1561
▁हुई	-1562
▁ग्रामीण	-1563
मीटर	-1564
▁मुंबई	-1565
▁भूमिका	-1566
ंती	-1567
▁आपको	-1568
▁किलो	-1569
▁शां	-1570
मक	-1571
वरील	-1572
▁मर	-1573
▁सामने	-1574
▁भाव	-1575
्यता	-1576
▁तंत्रज्ञान	-1577
िता	-1578
▁पुरस्कार	-1579
▁येईल	-1580
▁रुग्ण	-1581
▁उपस्थित	-1582
▁घड	-1583
▁वित्त	-1584
रू	-1585
▁सुरू	-1586
▁भेट	-1587
म्यान	-1588
▁पिछले	-1589
▁योगदान	-1590
▁यहूदा	-1591
▁लो	-1592
ण्याच्या	-1593
▁प्रौद्योग	-1594
▁उठ	-1595
सु	-1596
▁करू	-1597
▁यावेळी	-1598
▁कुटु	-1599
▁नए	-1600
▁रक्त	-1601
पेक्षा	-1602
मार्	-1603
▁व्हा	-1604
मान्य	-1605
▁याज	-1606
▁मुलगा	-1607
▁ध्यान	-1608
▁चि	-1609
ासा	-1610
भूत	-1611
मन	-1612
▁आध	-1613
साय	-1614
्ड	-1615
▁समस	-1616
ल्ले	-1617
▁अलावा	-1618
▁अं	-1619
▁आठ	-1620
नाथ	-1621
झा	-1622
▁चल	-1623
▁सफ	-1624
▁मूर्	-1625
▁पुन्हा	-1626
▁प्रयोग	-1627
▁परिवर्	-1628
,000	-1629
▁विकासा	-1630
▁अगर	-1631
▁राज्यों	-1632
टना	-1633
र्च	-1634
▁डि	-1635
▁शब्द	-1636
▁हमने	-1637
शत	-1638
▁च्या	-1639
तियों	-1640
▁मध	-1641
ॉल	-1642
▁छो	-1643
स्त्र	-1644
▁आयोग	-1645
▁वाली	-1646
यू	-1647
इल	-1648
पु	-1649
▁डिजिटल	-1650
ूह	-1651
पाल	-1652
▁देखा	-1653
▁समावेश	-1654
यं	-1655
▁!	-1656
▁सूचना	-1657
▁बाजार	-1658
▁पत्	-1659
▁लोकांनी	-1660
▁पुरुष	-1661
▁व्यक्ती	-1662
▁एकत्र	-1663
▁महत्वा	-1664
▁सचिव	-1665
▁पुढे	-1666
▁पीएम	-1667
▁जय	-1668
नीय	-1669
▁फे	-1670
पण	-1671
▁दिस	-1672
▁न्याय	-1673
▁प्रणा	-1674
▁समाज	-1675
▁वर्षों	-1676
▁निवड	-1677
▁करण्याची	-1678
▁राष्ट्रपति	-1679
▁मंड	-1680
सह	-1681
▁जोड	-1682
▁ठर	-1683
▁धोर	-1684
ोव	-1685
▁रोजगार	-1686
▁गृह	-1687
▁करीत	-1688
▁ठिका	-1689
▁यहां	-1690
▁काढ	-1691
राष्ट्र	-1692
▁त्यांचे	-1693
▁त्याचा	-1694
▁किलोमीटर	-1695
लक	-1696
▁भविष्य	-1697
▁चित्रपट	-1698
▁ऐसा	-1699
▁केवळ	-1700
▁शक्ति	-1701
▁प्रकाश	-1702
),	-1703
▁बाब	-1704
▁अभि	-1705
▁उद्या	-1706
▁पर्यटन	-1707
▁सरकारने	-1708
▁व्यवस्थ	-1709
▁माझे	-1710
▁गुंत	-1711
राम	-1712
शय	-1713
▁प्रभु	-1714
▁स्थापित	-1715
फी	-1716
▁बंद	-1717
▁पूरी	-1718
कु	-1719
▁भारतात	-1720
▁मोठ्या	-1721
▁आह	-1722
▁दक्षि	-1723
▁समझौ	-1724
▁मात्र	-1725
हेर	-1726
▁कोणी	-1727
▁सर्वात	-1728
▁रक्षा	-1729
▁आत	-1730
▁आत्मा	-1731
▁मानव	-1732
▁मत	-1733
▁महाराष्ट	-1734
▁सोड	-1735
जवळ	-1736
▁लगा	-1737
िक्स	-1738
▁संदेश	-1739
पैकी	-1740
▁बढ़ावा	-1741
खंड	-1742
▁पर्व	-1743
▁प्रौद्योगिकी	-1744
▁नव्ह	-1745
▁स्तर	-1746
थील	-1747
▁प्रोत्साहन	-1748
ूट	-1749
▁होगी	-1750
▁मनुष्य	-1751
▁समुद्र	-1752
▁चीज	-1753
▁बच्	-1754
▁प्रेर	-1755
▁मामलों	-1756
▁बेट	-1757
▁समर्थ	-1758
▁करतात	-1759
▁सिंह	-1760
दर्शन	-1761
▁जिसमें	-1762
▁गुंतवण	-1763
▁अड	-1764
्यास	-1765
द्धा	-1766
ोप	-1767
▁२	-1768
▁शोध	-1769
खाली	-1770
▁पहि	-1771
▁वं	-1772
ण्यास	-1773
▁टक्के	-1774
▁उद्य	-1775
इट	-1776
यला	-1777
▁डी	-1778
▁तैयार	-1779
बे	-1780
▁अर्थव्यवस्था	-1781
इयों	-1782
▁खो	-1783
वली	-1784
▁संशोधन	-1785
▁तुम्हें	-1786
▁कृषि	-1787
▁सक्षम	-1788
▁निर्मिती	-1789
▁नस	-1790
▁ग्र	-1791
वणी	-1792
▁सीमा	-1793
लै	-1794
▁दौ	-1795
निर्	-1796
दला	-1797
▁परत	-1798
▁जाना	-1799
▁विस्तार	-1800
▁क्षेत्रा	-1801
ल्ला	-1802
भागी	-1803
ल्लेख	-1804
▁खरे	-1805
लब	-1806
▁परिषद	-1807
▁प्रशिक्षण	-1808
▁माध्यमातून	-1809
▁उल्लेख	-1810
▁बंध	-1811
▁प्रवेश	-1812
ांनो	-1813
▁संग	-1814
▁संस्था	-1815
▁पर्यंत	-1816
ॉन	-1817
▁वास्त	-1818
▁बल्	-1819
▁गांधी	-1820
▁कधी	-1821
▁M	-1822
तीत	-1823
▁माझा	-1824
ुरी	-1825
▁संस	-1826
▁आंतरराष्ट्रीय	-1827
रिक्त	-1828
▁आने	-1829
▁आपल्याला	-1830
▁प्रणाली	-1831
▁संबोधित	-1832
▁होऊ	-1833
▁गुजरात	-1834
त्वा	-1835
▁परमेश्वराने	-1836
▁व्यवस्था	-1837
क्षीय	-1838
▁कहते	-1839
▁अधिकारी	-1840
▁निश्चित	-1841
▁नाव	-1842
▁प्रतिनि	-1843
▁भारताच्या	-1844
▁समर्प	-1845
▁टे	-1846
▁तुल	-1847
▁बनाया	-1848
▁वैश्व	-1849
▁कुटुंब	-1850
िरा	-1851
▁कप	-1852
▁बँ	-1853
▁रे	-1854
▁करो	-1855
▁देशातील	-1856
न्स	-1857
▁आत्म	-1858
दय	-1859
▁जोर	-1860
▁सहकार्य	-1861
मीन	-1862
▁पाणी	-1863
▁यामुळे	-1864
ेंस	-1865
क्टर	-1866
▁अच्छ	-1867
▁पश्च	-1868
्ला	-1869
तु	-1870
▁करारा	-1871
ऱ्यां	-1872
हरी	-1873
▁तेथे	-1874
▁मंजूरी	-1875
▁कुल	-1876
▁जाऊ	-1877
▁दोस्त	-1878
▁वेळ	-1879
▁रुपया	-1880
ंस	-1881
▁प्रार्थ	-1882
▁भागीदारी	-1883
▁&#39;	-1884
▁सुरक्षित	-1885
▁गरज	-1886
▁सम्	-1887
▁शकतो	-1888
▁ताकि	-1889
▁याहवे	-1890
▁जिन्ह	-1891
▁11	-1892
▁उठा	-1893
▁महाराष्ट्र	-1894
▁30	-1895
▁नंतर	-1896
▁अनुभव	-1897
▁बैं	-1898
▁समस्या	-1899
▁वैश्विक	-1900
▁त्यांची	-1901
राज	-1902
रावर	-1903
▁मार्च	-1904
गरी	-1905
▁आयु	-1906
▁एखा	-1907
घाटन	-1908
ातल्या	-1909
▁जून	-1910
पणा	-1911
वला	-1912
▁शौ	-1913
▁दिनों	-1914
तों	-1915
ब्र	-1916
▁बेह	-1917
ांच	-1918
▁वार	-1919
णारा	-1920
▁25	-1921
▁जिल	-1922
▁आणखी	-1923
▁याजक	-1924
देख	-1925
हून	-1926
an	-1927
स्थान	-1928
▁फा	-1929
▁कृषी	-1930
स्थिती	-1931
▁होंगे	-1932
▁मृत्य	-1933
▁लागू	-1934
▁अन्न	-1935
▁गेला	-1936
ांला	-1937
▁दावी	-1938
ुनिक	-1939
▁मुद्	-1940
▁नये	-1941
-1	-1942
▁कोरो	-1943
▁जन्	-1944
मेंट	-1945
▁प्रस्ता	-1946
▁याद	-1947
▁आधारित	-1948
ित्त	-1949
▁करणार	-1950
बल	-1951
▁महामारी	-1952
ईन	-1953
तून	-1954
यल	-1955
▁देण्यासाठी	-1956
लं	-1957
▁निवेश	-1958
▁काळात	-1959
▁साध	-1960
▁स्थिति	-1961
▁नगर	-1962
काम	-1963
श्र	-1964
▁करार	-1965
▁मही	-1966
▁जिसे	-1967
▁संस्कृ	-1968
दन	-1969
▁प्रार्थना	-1970
लेली	-1971
▁पहा	-1972
▁मध्य	-1973
▁बच्चे	-1974
▁पार्	-1975
▁स्थापना	-1976
ध्द	-1977
▁24	-1978
▁प्रभा	-1979
▁टाक	-1980
▁चिकित्	-1981
▁त्याची	-1982
▁गुण	-1983
▁दू	-1984
▁परा	-1985
▁तथा	-1986
▁बहु	-1987
▁विमान	-1988
मीर	-1989
▁खुद	-1990
▁समार	-1991
▁पुरव	-1992
▁बाहेर	-1993
▁नियंत्र	-1994
ँच	-1995
▁"	-1996
▁P	-1997
▁एस	-1998
▁द्या	-1999
हान	-2000
▁घोषणा	-2001
▁व्यवहार	-2002
▁उपचार	-2003
▁शांति	-2004
▁स्वागत	-2005
ंबा	-2006
ेशा	-2007
ानों	-2008
▁राम	-2009
▁माग	-2010
▁समृद्ध	-2011
कडा	-2012
▁पं	-2013
▁संकल्प	-2014
▁परिवर्तन	-2015
▁पेट	-2016
▁ऊपर	-2017
▁18	-2018
▁बड़ी	-2019
▁समान	-2020
बि	-2021
▁इच्छा	-2022
ोड	-2023
▁बढ़ाने	-2024
▁स्वीकार	-2025
▁समुदा	-2026
कृत	-2027
▁वित्	-2028
तंत्र	-2029
▁नेतृ	-2030
▁अमेर	-2031
▁कौशल	-2032
▁उद्घाटन	-2033
वाह	-2034
▁अभियान	-2035
राष्ट्रप	-2036
▁सामान्य	-2037
▁उत्प	-2038
▁रेलवे	-2039
▁राष्ट्रपती	-2040
▁कला	-2041
▁परीक्षण	-2042
ात्	-2043
ियाँ	-2044
▁मिशन	-2045
▁सध्या	-2046
▁वृद्धि	-2047
ुट	-2048
▁ज्ञान	-2049
▁दक्षिण	-2050
▁पद्ध	-2051
▁यश	-2052
▁`	-2053
▁वचन	-2054
▁वित्तीय	-2055
▁शिक्षण	-2056
▁फाय	-2057
▁वर्त	-2058
▁14	-2059
▁पत्र	-2060
▁पालन	-2061
▁स्मार	-2062
▁व्यापक	-2063
लू	-2064
विक	-2065
▁जैसा	-2066
▁सरकारी	-2067
▁त्यामुळे	-2068
ईट	-2069
▁पाच	-2070
ंसा	-2071
▁सप	-2072
▁रोजी	-2073
▁पूरे	-2074
▁दृष्टी	-2075
मती	-2076
▁त्याच	-2077
▁समर्थन	-2078
लेला	-2079
▁देते	-2080
▁सहभागी	-2081
ार्ट	-2082
▁दोस्तों	-2083
▁करायला	-2084
▁बच	-2085
िड	-2086
नुसार	-2087
▁वाहत	-2088
ढे	-2089
रों	-2090
क्रमा	-2091
▁भावना	-2092
▁करती	-2093
▁बल्कि	-2094
▁उपराष्ट्रप	-2095
▁तुझे	-2096
▁50	-2097
▁13	-2098
▁सग	-2099
▁रात	-2100
▁त्व	-2101
देखील	-2102
▁हवाई	-2103
▁चिकित्सा	-2104
▁शै	-2105
▁यरु	-2106
▁रुग्णा	-2107
▁सदस्य	-2108
दम	-2109
ियो	-2110
▁आल्या	-2111
काळ	-2112
▁एल	-2113
▁सम्मान	-2114
ांक	-2115
टले	-2116
▁उसका	-2117
ज्ञानिक	-2118
▁संसा	-2119
▁संवाद	-2120
▁करण्याचे	-2121
▁मूल्य	-2122
रिया	-2123
▁अर्प	-2124
▁आजार	-2125
▁पर्यावरण	-2126
▁अह	-2127
▁सम्म	-2128
▁धोरण	-2129
▁संचा	-2130
नाच्या	-2131
▁S	-2132
▁येथील	-2133
डू	-2134
▁देत	-2135
ष्ट्रीय	-2136
ड़क	-2137
ूण	-2138
शान	-2139
भात	-2140
▁रि	-2141
▁आपला	-2142
्राष्ट्रीय	-2143
ड़ों	-2144
▁आयोजन	-2145
मत	-2146
भू	-2147
▁डो	-2148
▁स्वयं	-2149
▁आकर्ष	-2150
शिष्ट	-2151
▁प्रभावी	-2152
▁कंपन	-2153
▁येणार	-2154
सव	-2155
ोह	-2156
काल	-2157
िपक्षीय	-2158
▁शत्र	-2159
▁अफ	-2160
▁करतील	-2161
▁फै	-2162
सिद्ध	-2163
▁वर्षात	-2164
▁अर्	-2165
▁चला	-2166
▁पड़	-2167
▁अंग	-2168
लम	-2169
▁व्ह	-2170
▁घेतला	-2171
्याला	-2172
ऱ्यांना	-2173
वेत	-2174
▁आशा	-2175
▁मना	-2176
क्रिय	-2177
णीय	-2178
▁पोहो	-2179
▁सरा	-2180
▁बड़े	-2181
▁त्यांचा	-2182
▁भाष	-2183
▁अंतर्राष्ट्रीय	-2184
▁सत	-2185
विले	-2186
▁पक्ष	-2187
▁दुष्ट	-2188
▁नका	-2189
▁एप्र	-2190
▁हस्ता	-2191
स्ती	-2192
▁फार	-2193
ेलन	-2194
।";	-2195
▁वृ	-2196
▁मिळेल	-2197
ांशी	-2198
▁अंम	-2199
▁जनते	-2200
▁किसानों	-2201
▁खात	-2202
▁मेरा	-2203
▁इथे	-2204
स्क	-2205
▁विद्यार्थ	-2206
▁प्रस्ताव	-2207
▁स्पर्	-2208
▁द्विपक्षीय	-2209
▁वाच	-2210
नेट	-2211
▁आपली	-2212
▁महिन	-2213
क्षे	-2214
▁अधिका	-2215
▁शी	-2216
ाच्या	-2217
▁खास	-2218
▁उपक्रम	-2219
▁ठे	-2220
▁नीति	-2221
▁समर्पित	-2222
▁कोरोना	-2223
कू	-2224
▁स्वर्ग	-2225
▁शांत	-2226
▁स्वच्छता	-2227
▁स्वतंत्र	-2228
▁बनाए	-2229
▁नष्ट	-2230
▁उत्तम	-2231
▁बेहतर	-2232
ंबर	-2233
▁लव	-2234
लता	-2235
▁लक्षात	-2236
▁नाश	-2237
▁बरे	-2238
▁मात	-2239
▁चुन	-2240
श्वर	-2241
रोध	-2242
सिक	-2243
▁जंग	-2244
▁धन्य	-2245
▁वैज्ञानिक	-2246
▁नीचे	-2247
ोरे	-2248
िज्य	-2249
▁A	-2250
▁आग	-2251
▁अज	-2252
▁मित्रांनो	-2253
ठे	-2254
▁देशाच्या	-2255
▁दिशा	-2256
▁वाईट	-2257
▁हात	-2258
▁कानून	-2259
▁सहायता	-2260
पान	-2261
▁निका	-2262
▁तकनी	-2263
पूर्वी	-2264
▁सुंदर	-2265
णिज्य	-2266
▁निर्देश	-2267
कर्	-2268
▁नम	-2269
िश	-2270
▁100	-2271
▁होना	-2272
▁पहल	-2273
▁चाच	-2274
▁रखा	-2275
ळख	-2276
▁पेश	-2277
▁देवाने	-2278
▁आम्हाला	-2279
▁भोजन	-2280
▁खर्च	-2281
▁सकती	-2282
▁दिल	-2283
▁पायाभूत	-2284
ोर्ट	-2285
▁याचा	-2286
बाद	-2287
▁डे	-2288
शिवाय	-2289
▁सम्मेलन	-2290
▁इससे	-2291
▁छात्र	-2292
वण्यासाठी	-2293
▁संदर्	-2294
▁21	-2295
बंधन	-2296
दर्शक	-2297
▁ऐसे	-2298
▁मंजुरी	-2299
▁बचा	-2300
▁मिला	-2301
ृत	-2302
▁यांना	-2303
▁दुर्	-2304
▁चांगले	-2305
▁यरुशलेम	-2306
▁परिषदे	-2307
▁जन्म	-2308
किंग	-2309
▁वाणिज्य	-2310
▁शेतक	-2311
▁खरी	-2312
▁एवं	-2313
▁दुसऱ्या	-2314
▁खे	-2315
ल्ड	-2316
ल्स	-2317
▁बुन	-2318
▁देगा	-2319
▁निम	-2320
▁वर्ग	-2321
▁वैद्य	-2322
ज्ज	-2323
णारी	-2324
▁विन	-2325
▁नेह	-2326
िरी	-2327
सो	-2328
्यांची	-2329
▁म्हटले	-2330
ंदी	-2331
▁सन्	-2332
▁पोर्ट	-2333
▁कोणत्या	-2334
in	-2335
▁उद्देश्य	-2336
चीन	-2337
▁सश	-2338
▁-19	-2339
▁न्या	-2340
▁बुद्ध	-2341
▁सुधारणा	-2342
▁संकट	-2343
▁बताया	-2344
▁अंतर्गत	-2345
▁अतिरिक्त	-2346
▁पश्चिम	-2347
▁202	-2348
▁लक्ष्य	-2349
▁भु	-2350
▁16	-2351
▁बड़ा	-2352
्यावर	-2353
▁ट्रे	-2354
ज्ञाना	-2355
वू	-2356
रुद्ध	-2357
▁पोहोच	-2358
▁पौ	-2359
▁मिस	-2360
▁एफ	-2361
वहन	-2362
▁वर्तमान	-2363
पन	-2364
स्वी	-2365
ar	-2366
▁N	-2367
ैर	-2368
▁अत्य	-2369
▁करण्याच्या	-2370
वाई	-2371
▁दरम्यान	-2372
▁प्रसिद्ध	-2373
▁'	-2374
ंद्र	-2375
▁अतिशय	-2376
▁यी	-2377
▁स्पष्ट	-2378
ूर्	-2379
▁औषध	-2380
रित	-2381
▁प्रतिबद्ध	-2382
▁वाप	-2383
▁कैसे	-2384
▁इसका	-2385
▁करण्याचा	-2386
ंतर्गत	-2387
▁तेरा	-2388
मारे	-2389
▁यीशु	-2390
▁पर्यटक	-2391
र्फ	-2392
▁छोड़	-2393
▁प्रेम	-2394
म्मू	-2395
▁बैठकी	-2396
▁संपर्क	-2397
▁वर्	-2398
▁समज	-2399
▁घेतली	-2400
▁बाल	-2401
▁सला	-2402
▁नेहमी	-2403
▁दिवशी	-2404
दों	-2405
स्तान	-2406
▁युद्ध	-2407
▁समाधान	-2408
ळून	-2409
▁मुक्त	-2410
▁पाहिले	-2411
कारात्मक	-2412
▁ऋ	-2413
▁दया	-2414
्याचा	-2415
▁मंत्रिमंडळ	-2416
▁बिना	-2417
▁समझौता	-2418
ियादी	-2419
ष्क	-2420
्रिक	-2421
▁चुनौ	-2422
▁पहुंच	-2423
▁उससे	-2424
▁सामना	-2425
उन	-2426
▁करीन	-2427
▁लेने	-2428
.5	-2429
वृ	-2430
▁हमेशा	-2431
▁बुनियादी	-2432
▁तुम्हांला	-2433
जावणी	-2434
सारख्या	-2435
▁ठिकाणी	-2436
्यांमध्ये	-2437
न्फ	-2438
▁हृ	-2439
लभ	-2440
▁गिर	-2441
▁दर्श	-2442
▁सहित	-2443
▁लॉकडा	-2444
▁जरूर	-2445
लबजावणी	-2446
▁ऑन	-2447
▁वैद्यकीय	-2448
लीन	-2449
▁असतात	-2450
▁आयुष	-2451
चर	-2452
▁असतो	-2453
▁पहिल्या	-2454
दू	-2455
▁करके	-2456
▁समूह	-2457
▁आधुनिक	-2458
▁प्रयोगशा	-2459
▁रखने	-2460
▁क्षेत्रातील	-2461
▁पूर्वी	-2462
▁दूसरे	-2463
शेने	-2464
▁नवा	-2465
▁रंग	-2466
▁अंमलबजावणी	-2467
▁अधिकारियों	-2468
▁उदा	-2469
एच	-2470
▁उत्पन्न	-2471
▁धो	-2472
▁प्या	-2473
▁जम्मू	-2474
▁विभा	-2475
▁नेतृत्व	-2476
श्मीर	-2477
चीत	-2478
▁लघ	-2479
्यांचे	-2480
स्पर	-2481
ुकी	-2482
सू	-2483
▁अभ्यास	-2484
▁स्टार्ट	-2485
▁मंत्रिमंडल	-2486
▁ओळख	-2487
▁महीने	-2488
▁जगा	-2489
ऊद	-2490
▁मॉ	-2491
▁असो	-2492
णासाठी	-2493
▁17	-2494
द्रा	-2495
▁एकूण	-2496
▁इत्या	-2497
्रि	-2498
▁अभिन	-2499
▁निधी	-2500
▁सूर्य	-2501
एसटी	-2502
▁गण	-2503
▁सामंज	-2504
▁ताक	-2505
▁मध्यम	-2506
▁तल	-2507
हां	-2508
▁परियोजनाओं	-2509
▁आवाहन	-2510
▁बिज	-2511
▁आव्ह	-2512
▁धर्म	-2513
▁आँ	-2514
▁माझी	-2515
▁घाल	-2516
्ले	-2517
▁नुक	-2518
▁दाऊद	-2519
▁लागत	-2520
▁प्रयासों	-2521
▁शकते	-2522
▁इतिहास	-2523
▁देशभर	-2524
बाब	-2525
▁मोठी	-2526
▁मिले	-2527
▁दिखा	-2528
▁लवकर	-2529
▁बातचीत	-2530
िनी	-2531
▁कल	-2532
▁आहात	-2533
▁उत्त	-2534
▁सुमारे	-2535
▁कदम	-2536
▁पैदा	-2537
ंख	-2538
▁पता	-2539
टल	-2540
यां	-2541
वाब	-2542
▁सौर	-2543
▁उदाहर	-2544
थी	-2545
ंदन	-2546
मधून	-2547
▁नव्या	-2548
▁लाभार्थ	-2549
▁खेल	-2550
▁खाली	-2551
▁आशी	-2552
▁सके	-2553
▁करताना	-2554
▁सक्रिय	-2555
मार्ग	-2556
▁सामंजस्य	-2557
▁परिस्थिती	-2558
अंतर्गत	-2559
गड	-2560
केल	-2561
्याची	-2562
▁वेळी	-2563
▁प्राचीन	-2564
नाव	-2565
▁जगह	-2566
▁हित	-2567
▁मोठे	-2568
▁जिल्ह	-2569
हाज	-2570
▁गुंतवणूक	-2571
▁अप्र	-2572
ोगे	-2573
ेक्षा	-2574
▁महिलाओं	-2575
▁अध्यक्षता	-2576
▁जमीन	-2577
▁एप्रिल	-2578
हीत	-2579
वर्ष	-2580
▁शिखर	-2581
लित	-2582
दिष्ट	-2583
▁निर्यात	-2584
अप	-2585
▁सेना	-2586
▁दिल्या	-2587
संद	-2588
▁असतील	-2589
चान	-2590
▁यू	-2591
क्क	-2592
▁यरू	-2593
▁सेवक	-2594
▁वें	-2595
▁बदला	-2596
सारखे	-2597
▁राहि	-2598
धान्य	-2599
▁आशीर्	-2600
▁अच्छा	-2601
▁वस्तू	-2602
सत	-2603
▁जहां	-2604
▁घ्या	-2605
▁भाइयों	-2606
▁आधी	-2607
▁शासन	-2608
ड़ने	-2609
▁वाता	-2610
्याह	-2611
▁प्रकारे	-2612
▁एज	-2613
▁मोठा	-2614
णाच्या	-2615
▁कठ	-2616
▁200	-2617
▁सुन	-2618
▁करावे	-2619
ुओं	-2620
▁प्रश्	-2621
▁प्रगति	-2622
-20	-2623
▁श्रे	-2624
विद्या	-2625
वर्धन	-2626
▁स्म	-2627
▁निवास	-2628
▁कार्यान	-2629
वाल	-2630
▁प्रगती	-2631
▁कार्यान्व	-2632
▁यरूशलेम	-2633
ल्क	-2634
▁तत्	-2635
▁तेजी	-2636
थमिक	-2637
▁``	-2638
णाला	-2639
▁साझा	-2640
▁करणाऱ्या	-2641
▁तंत्रज्ञाना	-2642
ांब	-2643
▁खुशी	-2644
साद	-2645
धारित	-2646
▁जाएगी	-2647
▁हिस्सा	-2648
▁प्रबंधन	-2649
▁जाणार	-2650
▁नियंत्रण	-2651
▁आपकी	-2652
▁वाहतूक	-2653
▁भ्र	-2654
▁प्राथमिक	-2655
▁ईश्वर	-2656
▁होतील	-2657
००	-2658
▁शकत	-2659
▁बधा	-2660
▁यांचे	-2661
स्कृतिक	-2662
▁दें	-2663
▁मांस	-2664
▁आवाज	-2665
▁नों	-2666
▁लाल	-2667
▁उनका	-2668
्याचे	-2669
▁बधाई	-2670
▁आलेल्या	-2671
▁वंश	-2672
▁घरा	-2673
लाव	-2674
▁सदस	-2675
▁अच्छी	-2676
▁आशीर्वाद	-2677
▁चांगल्या	-2678
▁दृष्टि	-2679
वाला	-2680
▁गड	-2681
लेक्ट	-2682
▁अवधि	-2683
▁प्रतिशत	-2684
णू	-2685
▁सरकारच्या	-2686
ेच्या	-2687
▁पीछ	-2688
ूद	-2689
▁मान्यता	-2690
▁महि	-2691
▁करील	-2692
▁जल्	-2693
ोम	-2694
▁सिर	-2695
▁सड़क	-2696
▁जयंती	-2697
▁गौर	-2698
तिहासिक	-2699
▁ज्ञापन	-2700
▁दृष्टिक	-2701
▁टन	-2702
▁2016	-2703
ूँ	-2704
▁शक्य	-2705
▁माणसा	-2706
वण्यात	-2707
▁रण	-2708
▁विज	-2709
▁रहने	-2710
ग्री	-2711
▁परिवहन	-2712
▁घाटन	-2713
▁शकतात	-2714
▁उदाहरण	-2715
▁सकारात्मक	-2716
▁सैनिक	-2717
ियां	-2718
▁पट	-2719
▁हाला	-2720
▁माणूस	-2721
लाइन	-2722
▁सांस्कृतिक	-2723
कल्	-2724
▁इसी	-2725
▁ऐतिहासिक	-2726
▁कॅ	-2727
▁पुढील	-2728
▁पदार्थ	-2729
खित	-2730
▁प्रवास	-2731
ंता	-2732
्यांवर	-2733
ैल	-2734
हरे	-2735
▁आहेस	-2736
▁छोटे	-2737
▁इत्यादी	-2738
▁संत	-2739
▁इलेक्ट	-2740
▁रू	-2741
▁नियमित	-2742
क्षर	-2743
▁अथ	-2744
▁बैंक	-2745
ांज	-2746
▁अलग	-2747
▁वेदी	-2748
▁कभी	-2749
▁न्याया	-2750
▁यावर	-2751
▁संगठ	-2752
▁प्रशंसा	-2753
ोस	-2754
▁कळ	-2755
िमित्त	-2756
▁उभार	-2757
▁सें	-2758
▁कामा	-2759
▁समी	-2760
्यांचा	-2761
▁गं	-2762
डिया	-2763
दु	-2764
▁दावीद	-2765
▁दश	-2766
▁गुणव	-2767
एगा	-2768
▁डॉक्टर	-2769
गु	-2770
म्मी	-2771
▁प्रसारण	-2772
्रास	-2773
▁प्रतिक	-2774
▁इथ	-2775
▁किन	-2776
▁फ्र	-2777
▁लोकां	-2778
▁वाटते	-2779
▁केंद्रित	-2780
▁कार्यक्रमा	-2781
▁डाल	-2782
▁मौजू	-2783
वों	-2784
▁31	-2785
▁जातो	-2786
▁प्रदर्शन	-2787
‍या	-2788
क्शन	-2789
▁अस्प	-2790
▁उनसे	-2791
▁करेल	-2792
ीन	-2793
▁तुलना	-2794
▁भागात	-2795
▁कल्प	-2796
▁राहा	-2797
ूर्ति	-2798
▁शहरों	-2799
▁यांचा	-2800
▁व्याव	-2801
ेद	-2802
शाली	-2803
▁शुभे	-2804
ंगी	-2805
▁गंगा	-2806
▁जुलै	-2807
▁जिसके	-2808
▁तुमचा	-2809
▁धन्यवाद	-2810
▁मंदिरा	-2811
.0	-2812
ष्टा	-2813
ंमध्ये	-2814
▁गि	-2815
▁हाल	-2816
▁नोंद	-2817
▁येते	-2818
टने	-2819
हिम	-2820
िष्ठ	-2821
▁गुरु	-2822
▁शक्ती	-2823
▁दूंगा	-2824
ताल	-2825
▁पॅ	-2826
▁उद्दिष्ट	-2827
▁पोह	-2828
▁कोणत्याही	-2829
▁फक्त	-2830
▁उम्मी	-2831
▁विषय	-2832
▁जित	-2833
सल	-2834
भीर	-2835
हना	-2836
ठीक	-2837
ग्रहा	-2838
संधान	-2839
▁स्वतः	-2840
रत	-2841
▁खाद्य	-2842
▁गतिविध	-2843
▁ठीक	-2844
▁महोत्	-2845
▁किती	-2846
ोब	-2847
▁ली	-2848
▁वहाँ	-2849
▁कट	-2850
▁शुभ	-2851
भाल	-2852
▁एखाद्या	-2853
▁जाण	-2854
▁अनुसंधान	-2855
-2	-2856
▁दौरा	-2857
▁वातावरण	-2858
▁पुस्त	-2859
▁असताना	-2860
साथ	-2861
▁धा	-2862
▁वितरण	-2863
▁समारोह	-2864
ऊल	-2865
▁कंपनी	-2866
स्ट्र	-2867
▁परमेश्वराच्या	-2868
गिरी	-2869
▁मूसा	-2870
▁स्वातंत्र	-2871
▁कने	-2872
▁कायम	-2873
▁देतो	-2874
▁वाला	-2875
▁शुभेच्छा	-2876
्ये	-2877
▁जिन्होंने	-2878
▁बरो	-2879
▁याची	-2880
▁उपकरण	-2881
िकल	-2882
▁भाई	-2883
ात्मा	-2884
▁जाएंगे	-2885
थम	-2886
▁देवाच्या	-2887
इड	-2888
ंटे	-2889
क्ता	-2890
▁संक	-2891
▁वरिष्ठ	-2892
▁अर	-2893
▁लेकर	-2894
▁तीस	-2895
▁पहली	-2896
▁सुना	-2897
▁यहु	-2898
▁महत्त्व	-2899
at	-2900
▁प्रस	-2901
▁उम्मीद	-2902
▁अंध	-2903
लाई	-2904
▁जहाँ	-2905
▁न्यू	-2906
न्व	-2907
▁लघु	-2908
कां	-2909
▁सर्वे	-2910
▁प्रदर्श	-2911
कृष्ट	-2912
▁घरे	-2913
▁दिए	-2914
काळी	-2915
▁मेट	-2916
▁22	-2917
▁भीतर	-2918
▁मंच	-2919
▁यांची	-2920
▁म्हणतो	-2921
तः	-2922
लंब	-2923
▁रोक	-2924
▁हिमा	-2925
▁इज़	-2926
▁सिद्ध	-2927
▁भाषण	-2928
▁भूमी	-2929
▁मामले	-2930
▁औद्योग	-2931
▁राही	-2932
रूप	-2933
सायिक	-2934
अर	-2935
तेखाली	-2936
▁करूंगा	-2937
ेला	-2938
▁हवे	-2939
▁त्यात	-2940
▁माहीत	-2941
▁डॉल	-2942
▁आमचे	-2943
▁लढा	-2944
व्ह	-2945
्राम	-2946
▁उद्यम	-2947
▁थो	-2948
▁तुमचे	-2949
▁सामर्थ	-2950
ित्व	-2951
▁रोगी	-2952
्यातील	-2953
▁लोकांच्या	-2954
▁ऑग	-2955
▁एकम	-2956
र्गिक	-2957
▁शोक	-2958
▁प्रभावित	-2959
30	-2960
▁दह	-2961
ॉक	-2962
द्री	-2963
▁दर्शन	-2964
गो	-2965
▁युवक	-2966
▁यंत्र	-2967
▁D	-2968
्टी	-2969
नान	-2970
▁अत्यंत	-2971
▁आपूर्ति	-2972
राइल	-2973
▁अध्यक्षतेखाली	-2974
▁दवा	-2975
▁शुद्ध	-2976
▁स्थानी	-2977
▁माणस	-2978
▁तरीके	-2979
▁ब्रिक्स	-2980
▁राजस्थान	-2981
ढी	-2982
▁असलेले	-2983
▁गंभीर	-2984
र्न	-2985
ियर	-2986
▁पुरवठा	-2987
चारी	-2988
▁मिसर	-2989
कात	-2990
▁परंप	-2991
ल्याने	-2992
▁गोष्ट	-2993
▁आदिवासी	-2994
ष्ण	-2995
▁जाओ	-2996
▁सै	-2997
▁दृष्टिको	-2998
▁1,	-2999
as	-3000
▁काल	-3001
▁राख	-3002
▁घेतले	-3003
▁स्त्री	-3004
▁संदे	-3005
▁नागरिकों	-3006
▁बजा	-3007
▁मुझ	-3008
ैसर्गिक	-3009
▁औद्योगिक	-3010
▁1.	-3011
▁28	-3012
▁बळ	-3013
ढावा	-3014
▁इसकी	-3015
▁देना	-3016
▁अभिया	-3017
▁विदेशी	-3018
त्ति	-3019
▁संक्रम	-3020
▁संबंधों	-3021
▁लहान	-3022
▁अर्पण	-3023
िक्	-3024
▁लंब	-3025
▁आपने	-3026
▁विशा	-3027
▁वर्षे	-3028
▁परस्पर	-3029
▁प्रेरणा	-3030
▁सभा	-3031
कूल	-3032
▁ख्रि	-3033
di	-3034
त्मक	-3035
▁शिष	-3036
ढ़ा	-3037
ँचा	-3038
▁जानकारी	-3039
▁गुणवत्ता	-3040
पत्र	-3041
▁वाह	-3042
बू	-3043
▁0	-3044
▁नाय	-3045
▁शुरु	-3046
त्त	-3047
▁इच्छ	-3048
▁जहाज	-3049
▁संसाधन	-3050
▁नैसर्गिक	-3051
▁प्रती	-3052
▁छात्रों	-3053
मंड	-3054
धारण	-3055
▁युवाओं	-3056
▁संग्रहा	-3057
मारी	-3058
▁महात्मा	-3059
▁प्रभू	-3060
वर्षी	-3061
▁उपायय	-3062
▁होतात	-3063
▁अभी	-3064
▁आतंक	-3065
▁द्वार	-3066
रीय	-3067
मिनी	-3068
दूत	-3069
वधान	-3070
▁आदर	-3071
▁गाँ	-3072
▁पांच	-3073
क्या	-3074
▁इंटर	-3075
▁बल	-3076
ायला	-3077
कल्पा	-3078
रुन	-3079
▁बरोबर	-3080
▁हमारा	-3081
▁गेली	-3082
▁जबकि	-3083
▁प्रमाणात	-3084
ड्या	-3085
▁आढावा	-3086
▁प्रतिनिध	-3087
▁बाय	-3088
▁पत्थ	-3089
▁चीजों	-3090
दया	-3091
▁शास	-3092
▁एक्स	-3093
▁सुलभ	-3094
▁ऑगस्ट	-3095
▁लौ	-3096
▁हृदय	-3097
समोर	-3098
▁आराम	-3099
▁होऊन	-3100
राच्या	-3101
▁चाचणी	-3102
कान	-3103
मति	-3104
▁आभार	-3105
▁इसमें	-3106
▁संभाव	-3107
▁व्यावसायिक	-3108
▁एमएस	-3109
▁जम	-3110
▁जमा	-3111
▁पुल	-3112
▁मोबा	-3113
▁यशस्वी	-3114
▁दृष्टीने	-3115
▁फॉ	-3116
▁2014	-3117
er	-3118
▁मोशे	-3119
▁मृत्यु	-3120
विद्यालय	-3121
▁प्रत्यक्ष	-3122
ुण	-3123
▁ढांचे	-3124
▁बिजली	-3125
बह	-3126
▁लढ	-3127
ोव्ह	-3128
▁निकाल	-3129
▁प्रश्न	-3130
कालीन	-3131
▁रणनी	-3132
▁शहरी	-3133
ब्ल	-3134
▁थेट	-3135
▁कार्यान्वयन	-3136
▁योजन	-3137
निर्माण	-3138
▁प्रशासन	-3139
▁वीं	-3140
जरा	-3141
ांमुळे	-3142
जात	-3143
▁लगे	-3144
▁26	-3145
त्री	-3146
▁दहशत	-3147
▁बाजू	-3148
▁महत्त्वा	-3149
▁दिशेने	-3150
मर	-3151
रल	-3152
▁शुरुआ	-3153
वेल	-3154
तार	-3155
▁साझे	-3156
▁आव्हान	-3157
▁विभागा	-3158
एमई	-3159
▁उचल	-3160
▁मिस्र	-3161
पात	-3162
▁आढ	-3163
वेदन	-3164
▁आकार	-3165
▁करेगी	-3166
▁रस्ते	-3167
▁उड	-3168
▁मुख्यमंत्री	-3169
नाला	-3170
राध	-3171
▁इला	-3172
▁फायदा	-3173
▁भारतातील	-3174
▁सेवाओं	-3175
र्भात	-3176
▁जबाब	-3177
▁काळजी	-3178
▁जमिनी	-3179
▁दूध	-3180
▁निपट	-3181
▁सराहना	-3182
ायी	-3183
▁ज़	-3184
▁सर्वेक्षण	-3185
▁क्रम	-3186
▁अंतिम	-3187
ार्मिक	-3188
ेटा	-3189
▁निहार	-3190
▁स्वामी	-3191
▁इज़राइल	-3192
्रोल	-3193
▁याच	-3194
▁कॉन्फ	-3195
▁तिच्या	-3196
▁होत्या	-3197
▁पशु	-3198
▁पहचान	-3199
प्प	-3200
▁नको	-3201
▁समुदाय	-3202
क्ष्म	-3203
▁उत्पादक	-3204
▁यांच्यात	-3205
्यो	-3206
▁अश	-3207
▁मुले	-3208
▁अभिनंदन	-3209
▁विशिष्ट	-3210
▁जिससे	-3211
▁राहील	-3212
दृ	-3213
▁लाने	-3214
▁सन्मान	-3215
▁जला	-3216
▁छा	-3217
▁लांब	-3218
▁उद्यान	-3219
▁समीक्षा	-3220
▁आकाश	-3221
50	-3222
ाचे	-3223
ड़ाई	-3224
ियल	-3225
▁पसर	-3226
▁चालू	-3227
▁ताकत	-3228
▁भाषा	-3229
▁पुरुषों	-3230
लग	-3231
कृति	-3232
▁स्थिर	-3233
▁नुकसान	-3234
▁पात	-3235
▁धार्मिक	-3236
डर	-3237
दित	-3238
▁सेवन	-3239
▁जानते	-3240
कृतिक	-3241
▁ज्यादा	-3242
▁एकत्रित	-3243
ट्टी	-3244
▁देखने	-3245
▁सर्वश	-3246
▁प्रस्त	-3247
▁म्हणजेच	-3248
ॉर्ड	-3249
ल्यावर	-3250
▁प्रोत्साहित	-3251
▁फल	-3252
्यासाठी	-3253
▁गाव	-3254
▁करावा	-3255
▁यहूदी	-3256
▁मीडिया	-3257
▁देऊ	-3258
▁नवाचार	-3259
▁संस्कृति	-3260
▁मीटर	-3261
▁व्यवस्थापन	-3262
▁सेव	-3263
मंत्र	-3264
▁राष्ट्रा	-3265
▁मंत्रालयाने	-3266
▁धर	-3267
▁सहा	-3268
▁तेज	-3269
बिनेट	-3270
सभा	-3271
नाचे	-3272
▁नेट	-3273
▁पोहच	-3274
▁ठेवा	-3275
▁जातील	-3276
दरम्यान	-3277
ंडी	-3278
▁धु	-3279
वासा	-3280
▁बोला	-3281
▁खरेदी	-3282
▁जानेवारी	-3283
▁मंत्रिमंडळा	-3284
यरस	-3285
सेल	-3286
▁एकी	-3287
▁गैर	-3288
प्ता	-3289
▁उर्	-3290
▁ऐसी	-3291
बरोबरच	-3292
▁हस्ते	-3293
▁३	-3294
वर्क	-3295
▁गैस	-3296
▁आवास	-3297
▁पीछे	-3298
थून	-3299
म्र	-3300
▁कर्ज	-3301
▁तों	-3302
जारी	-3303
▁आँख	-3304
▁बिल	-3305
▁नेताओं	-3306
..	-3307
▁कहता	-3308
▁जाऊन	-3309
▁सत्र	-3310
▁लागले	-3311
एंगे	-3312
▁प्रेरित	-3313
▁नावा	-3314
▁सोने	-3315
▁सर्वोत्	-3316
▁उपराष्ट्रपती	-3317
▁उभ	-3318
र्घ	-3319
▁मण	-3320
्षिक	-3321
▁भवन	-3322
▁23	-3323
▁विश्	-3324
ॉट	-3325
वित	-3326
▁सतत	-3327
िनियम	-3328
ैव	-3329
▁सांगतो	-3330
▁एकदा	-3331
▁बंगा	-3332
▁चालना	-3333
▁जीवित	-3334
▁वर्षी	-3335
▁माता	-3336
▁प्राकृतिक	-3337
▁विद्य	-3338
▁महस	-3339
▁उत्सा	-3340
▁स्थानीय	-3341
दना	-3342
▁जीएसटी	-3343
▁प्रतिबंध	-3344
▁अना	-3345
पूर्वक	-3346
▁निर्धारित	-3347
▁राहत	-3348
▁करण्यास	-3349
ेने	-3350
▁वड	-3351
▁तलवार	-3352
केत	-3353
▁स्मार्ट	-3354
▁27	-3355
▁परंपरा	-3356
▁तेरे	-3357
▁हर्ष	-3358
▁आदान	-3359
▁डाला	-3360
▁नग	-3361
▁समित	-3362
सन	-3363
▁ऋण	-3364
▁संस्थान	-3365
▁कवर	-3366
▁क्री	-3367
▁अर्थव्यवस्थ	-3368
मण	-3369
▁स्थिती	-3370
डु	-3371
ासून	-3372
▁थांब	-3373
्यु	-3374
▁दला	-3375
▁तरुण	-3376
▁निजी	-3377
▁प्रार	-3378
▁देखभाल	-3379
वरुन	-3380
सोबत	-3381
▁इमार	-3382
▁भेजा	-3383
हक	-3384
▁जागा	-3385
▁जातात	-3386
▁आग्रह	-3387
ुती	-3388
▁विरा	-3389
▁जिसने	-3390
▁प्रथम	-3391
▁समन्व	-3392
▁B	-3393
ाची	-3394
▁वेगाने	-3395
▁मिन	-3396
▁विषा	-3397
▁माँ	-3398
▁मिळाली	-3399
▁बँक	-3400
▁लेवी	-3401
्टेंबर	-3402
▁अत्या	-3403
लावधी	-3404
▁असेही	-3405
देन	-3406
▁रहता	-3407
▁मुद्दों	-3408
ळू	-3409
गाव	-3410
▁बघ	-3411
▁रिप	-3412
▁सर्वांना	-3413
▁पलि	-3414
▁विदेश	-3415
ऊंगा	-3416
क्टोबर	-3417
▁साझेदारी	-3418
णाचे	-3419
▁तुमची	-3420
▁संदर्भ	-3421
नाचा	-3422
▁साइ	-3423
▁उत्कृष्ट	-3424
बो	-3425
माने	-3426
▁मसी	-3427
सुद्धा	-3428
▁त्रास	-3429
▁कालावधी	-3430
▁हस्ताक्षर	-3431
यचे	-3432
▁दृष्टिकोण	-3433
ov	-3434
▁अग्र	-3435
▁सप्टेंबर	-3436
ातार	-3437
▁सेंटर	-3438
▁कल्पना	-3439
र्श	-3440
▁40	-3441
▁तुझी	-3442
▁रखते	-3443
मधल्या	-3444
▁शत	-3445
▁वारा	-3446
▁भारताचे	-3447
▁मांग	-3448
▁समिती	-3449
▁अगदी	-3450
क्षणिक	-3451
▁मास्क	-3452
ेशी	-3453
▁निकल	-3454
▁प्रकल्पा	-3455
▁कार्	-3456
▁दर्द	-3457
▁नोव्ह	-3458
▁स्थापन	-3459
▁संस्थानों	-3460
यिक	-3461
▁तिथे	-3462
राई	-3463
▁जण	-3464
दियों	-3465
▁निहारना	-3466
▁बौ	-3467
▁मसीह	-3468
स्त्रा	-3469
▁घटना	-3470
▁पूजा	-3471
▁ठेवले	-3472
▁श्रम	-3473
स्व	-3474
▁बिहार	-3475
▁मात्रा	-3476
शुद्ध	-3477
▁पासून	-3478
▁दहा	-3479
▁तपास	-3480
▁देणे	-3481
▁विशाल	-3482
शू	-3483
▁जवाब	-3484
▁भारती	-3485
▁नोव्हेंबर	-3486
माल	-3487
▁देखते	-3488
▁अधिनियम	-3489
िओ	-3490
वादी	-3491
्रॉन	-3492
ब्ज	-3493
▁पोर्टल	-3494
al	-3495
▁घटक	-3496
ॅट	-3497
▁R	-3498
▁पत्नी	-3499
▁स्वतंत्रता	-3500
.20	-3501
▁आढळ	-3502
▁चरण	-3503
▁वाहन	-3504
▁संभव	-3505
सों	-3506
राब	-3507
▁चाहते	-3508
▁शेतकरी	-3509
▁बलि	-3510
▁विध	-3511
▁देशां	-3512
▁G	-3513
सेना	-3514
▁बैठकीत	-3515
▁बहा	-3516
▁मधु	-3517
ंसाठी	-3518
जों	-3519
▁बंगाल	-3520
▁शुरुआत	-3521
ारण	-3522
▁बहनों	-3523
▁गट	-3524
▁29	-3525
▁वाज	-3526
नासाठी	-3527
इस	-3528
▁शकेल	-3529
▁कैबिनेट	-3530
▁शैक्षणिक	-3531
▁जागर	-3532
▁दिलेल्या	-3533
कट्	-3534
▁अरु	-3535
▁2022	-3536
▁इकट्	-3537
▁असं	-3538
▁चां	-3539
▁जंगल	-3540
▁शेव	-3541
हीर	-3542
फ्ट	-3543
▁मांड	-3544
▁ग्राम	-3545
▁विरासत	-3546
▁तिला	-3547
▁मानसिक	-3548
▁सही	-3549
ब्रु	-3550
▁सुबह	-3551
▁स्त्र	-3552
ळव	-3553
विटी	-3554
▁उत्स	-3555
▁अर्थात	-3556
▁डिस	-3557
▁रस्त	-3558
▁लॉकडाउन	-3559
▁अंदा	-3560
▁संतु	-3561
▁यामध्ये	-3562
▁द्रा	-3563
▁संसद	-3564
▁लगातार	-3565
ेस	-3566
▁खत	-3567
▁मॉड	-3568
▁गौरव	-3569
ार्ड	-3570
▁राब	-3571
▁बंधू	-3572
▁गडकरी	-3573
▁मनुष	-3574
▁येतील	-3575
▁कित	-3576
▁होम	-3577
▁स्थानिक	-3578
ीप	-3579
▁प्रो	-3580
▁जिन्हें	-3581
▁स्थानों	-3582
बळ	-3583
▁शकता	-3584
▁वार्षिक	-3585
▁परमेश्वराला	-3586
भाष	-3587
▁खरीद	-3588
▁लगता	-3589
▁पहुँच	-3590
▁ऑक्टोबर	-3591
फ्	-3592
▁गोवा	-3593
विषयक	-3594
▁प्रतिबद्धता	-3595
गल	-3596
▁सफलता	-3597
▁तट	-3598
▁क्ल	-3599
▁टीम	-3600
▁रास्ते	-3601
ब्रुवारी	-3602
▁अली	-3603
▁सल्ला	-3604
फार	-3605
केज	-3606
▁शहा	-3607
हू	-3608
▁महामार्	-3609
▁क्षेत्रीय	-3610
▁गतिविधियों	-3611
नेत	-3612
▁हवामान	-3613
▁डर	-3614
▁आदेश	-3615
▁करावी	-3616
▁मूर्ख	-3617
▁फेब्रुवारी	-3618
गम	-3619
ंवर	-3620
गढ़	-3621
▁वेब	-3622
▁त्वचा	-3623
▁विधे	-3624
▁सलाह	-3625
लीस	-3626
▁विद्यापी	-3627
▁रोगियों	-3628
▁डों	-3629
▁पार्क	-3630
ाराच्या	-3631
वंत	-3632
व्र	-3633
▁कुठ	-3634
जि	-3635
ेचे	-3636
भूमी	-3637
▁उपराष्ट्रपति	-3638
कामना	-3639
न्द्र	-3640
▁पीढ़	-3641
▁पर्वत	-3642
▁चम	-3643
▁फर	-3644
▁प्ले	-3645
▁बंदर	-3646
क्षक	-3647
▁एंड	-3648
▁वायु	-3649
▁उपयुक्त	-3650
▁जाग	-3651
▁श्रद्ध	-3652
घड	-3653
▁उपा	-3654
▁आसियान	-3655
दायक	-3656
र्जी	-3657
वादा	-3658
▁बनव	-3659
▁कर्मचारी	-3660
▁हूँ	-3661
ृंख	-3662
▁फु	-3663
▁बने	-3664
▁देखो	-3665
▁लाया	-3666
▁म्हणूनच	-3667
▁इलेक्ट्रॉन	-3668
णाचा	-3669
▁अनि	-3670
▁घेण्यात	-3671
▁प्रवासी	-3672
लाम	-3673
डियो	-3674
▁सिं	-3675
▁घरों	-3676
▁देंगे	-3677
▁इस्राए	-3678
▁काफी	-3679
▁दूरी	-3680
.2	-3681
▁क्रोध	-3682
▁सरकारों	-3683
▁येणाऱ्या	-3684
▁घात	-3685
▁अथवा	-3686
▁दीर्घ	-3687
▁नायडू	-3688
रीत	-3689
▁झु	-3690
▁रस	-3691
▁जल्द	-3692
▁वास्तव	-3693
▁२०	-3694
▁उभे	-3695
▁उसी	-3696
▁थीं	-3697
▁रहते	-3698
▁वाढव	-3699
पद	-3700
▁नया	-3701
▁मेड	-3702
▁परिसर	-3703
▁भारताने	-3704
सायन	-3705
▁तुझा	-3706
▁माणसे	-3707
▁एमएसएमई	-3708
▁योजनाओं	-3709
णसी	-3710
क्सी	-3711
▁हस्त	-3712
▁परमेश्वराचा	-3713
ृती	-3714
▁खोल	-3715
▁जगातील	-3716
▁निरंतर	-3717
▁मिलियन	-3718
▁जागरूक	-3719
▁सूक्ष्म	-3720
वीन	-3721
▁तास	-3722
▁शत्रू	-3723
▁75	-3724
▁रोख	-3725
संबंध	-3726
▁समाप्त	-3727
ाचा	-3728
श्वत	-3729
स्टर	-3730
▁शुभकामना	-3731
▁हल	-3732
▁कौशल्य	-3733
▁लॉन्	-3734
ंदोल	-3735
▁दास	-3736
ोजक	-3737
नाची	-3738
▁व्यवसाय	-3739
▁कुमार	-3740
▁तीव्र	-3741
▁तकनीकी	-3742
▁उंच	-3743
▁दर्जा	-3744
▁दिल्लीत	-3745
▁पूछ	-3746
▁सोडून	-3747
▁शिक्षक	-3748
पथ	-3749
निर्भर	-3750
▁उनमें	-3751
▁त्र	-3752
ांतर्गत	-3753
▁अपेक्षा	-3754
बु	-3755
▁रात्री	-3756
▁चले	-3757
▁संभावना	-3758
▁प्ला	-3759
▁अप्रैल	-3760
▁स्रो	-3761
प्रदान	-3762
▁भारताला	-3763
▁आमचा	-3764
▁जलवा	-3765
▁प्रतिनिधी	-3766
▁चिंता	-3767
▁डेटा	-3768
▁सर्वो	-3769
▁वर्षां	-3770
ँड	-3771
▁झार	-3772
▁अशुद्ध	-3773
▁राज्यात	-3774
▁आंध	-3775
▁होणाऱ्या	-3776
.4	-3777
▁री	-3778
▁पैसे	-3779
▁नेटवर्क	-3780
▁पेट्रोल	-3781
▁विश्वविद्यालय	-3782
▁पथ	-3783
याह	-3784
▁पाळ	-3785
▁येऊन	-3786
▁खून	-3787
▁बाबेल	-3788
नाटक	-3789
▁जसे	-3790
▁बौद्ध	-3791
▁काट	-3792
▁उचित	-3793
▁एशिया	-3794
▁प्रिय	-3795
▁मार्गा	-3796
.1	-3797
जब	-3798
यान	-3799
▁हिर	-3800
▁हिंद	-3801
▁युग	-3802
करणीय	-3803
म्मे	-3804
▁मेंढ	-3805
▁पर्वता	-3806
▁तुम्हारा	-3807
▁70	-3808
▁अंतरा	-3809
▁चुनौतियों	-3810
▁संकेत	-3811
▁मेट्रो	-3812
ैंड	-3813
▁अगले	-3814
▁मूल्या	-3815
रेल	-3816
▁मल	-3817
िर्म	-3818
▁प्रशास	-3819
विण्यासाठी	-3820
ोरी	-3821
▁काप	-3822
▁देईल	-3823
▁मूर्ती	-3824
▁जाहीर	-3825
पुढे	-3826
▁लिम	-3827
ृंखला	-3828
▁प्रकारच्या	-3829
▁साफ	-3830
▁आशिया	-3831
स्करण	-3832
▁कामगार	-3833
▁गरीबों	-3834
▁संचालन	-3835
वें	-3836
▁जैसी	-3837
▁लक्षण	-3838
▁ब्ल	-3839
काला	-3840
▁जैव	-3841
▁दोष	-3842
▁ईशान	-3843
▁आंदोल	-3844
▁सूर	-3845
▁बेटे	-3846
▁विमानत	-3847
▁शांतता	-3848
▁विरुद्ध	-3849
▁आते	-3850
▁टक्क	-3851
▁दूसरी	-3852
▁आतापर्यंत	-3853
ांश	-3854
▁भि	-3855
▁अजून	-3856
▁गर्भ	-3857
▁पत्थर	-3858
▁वाराणसी	-3859
▁शुल्क	-3860
▁देशाला	-3861
▁याच्या	-3862
▁आयात	-3863
▁नागरी	-3864
▁डिसेंबर	-3865
▁घेण्यासाठी	-3866
वेग	-3867
▁सत्य	-3868
्यूट	-3869
ध्यक्ष	-3870
▁हिस्से	-3871
जोर	-3872
नेस	-3873
▁खड़ा	-3874
ापासून	-3875
▁रिपोर्ट	-3876
▁राजमार्ग	-3877
यारी	-3878
▁वापस	-3879
▁रक्षण	-3880
▁ऑनलाइन	-3881
▁राजधान	-3882
▁दृढ	-3883
▁महिमा	-3884
पि	-3885
ndi	-3886
ंपर	-3887
▁गर्व	-3888
▁चंद्र	-3889
▁विवरण	-3890
▁विशेषज्ञ	-3891
▁शाश्वत	-3892
▁गठ	-3893
▁बज	-3894
णावर	-3895
▁श्रद्धांज	-3896
याला	-3897
▁कोर	-3898
▁हाथों	-3899
▁संस्कृती	-3900
▁केलेले	-3901
▁भागीदार	-3902
▁त्यानंतर	-3903
▁बर	-3904
मर्श	-3905
▁कुशल	-3906
▁मैदान	-3907
▁सुरुवात	-3908
िब	-3909
▁श्रमिक	-3910
▁परीक्षा	-3911
घे	-3912
णाची	-3913
▁सहज	-3914
▁कर्नाटक	-3915
▁मई	-3916
▁आमंत्र	-3917
▁मार्गदर्शक	-3918
▁चर	-3919
▁जगभर	-3920
ारीरिक	-3921
▁लॉन्च	-3922
▁हरिया	-3923
▁60	-3924
ेंशन	-3925
▁आपका	-3926
▁अपराध	-3927
▁मृत्यू	-3928
▁व्यक्तियों	-3929
th	-3930
बन	-3931
िटी	-3932
▁घरी	-3933
▁सफल	-3934
▁लड़ाई	-3935
▁निघ	-3936
▁घंटे	-3937
▁बोलत	-3938
▁अच्छे	-3939
▁शारीरिक	-3940
▁पक	-3941
▁रिक	-3942
प्रकार	-3943
यात	-3944
▁नै	-3945
▁आयुष्य	-3946
▁परिवारों	-3947
on	-3948
संख्या	-3949
▁यिर्म	-3950
▁जलवायु	-3951
▁निर्मा	-3952
डून	-3953
▁रेड	-3954
▁2015	-3955
▁चांगली	-3956
▁भारताची	-3957
▁सामर्थ्य	-3958
▁आकां	-3959
मिन	-3960
▁दस	-3961
िटेड	-3962
▁करणारे	-3963
▁खोज	-3964
▁हास	-3965
▁दरवा	-3966
▁भुगत	-3967
▁चाहता	-3968
▁बलिदान	-3969
गरानी	-3970
काच्या	-3971
▁जिम्मे	-3972
▁कामगिरी	-3973
▁कार्यों	-3974
▁जगात	-3975
▁विषाणू	-3976
▁सहाय्य	-3977
▁कोल	-3978
▁घोषित	-3979
▁सर्वोत्तम	-3980
चं	-3981
▁तत्व	-3982
▁कायदा	-3983
▁इस्राएलच्या	-3984
▁साह	-3985
ोट्या	-3986
▁संचार	-3987
▁सैन्य	-3988
▁ऐकले	-3989
▁एली	-3990
▁सारी	-3991
▁बोलते	-3992
▁लिमिटेड	-3993
संदर्भात	-3994
शास	-3995
न्या	-3996
▁खाज	-3997
▁चीन	-3998
▁सशक्त	-3999
णु	-4000
▁५	-4001
माग	-4002
▁येऊ	-4003
▁कोणीही	-4004
▁आतंकवाद	-4005
▁सर्वोच्च	-4006
▁निगरानी	-4007
▁उल	-4008
▁इकट्ठा	-4009
▁अमेरिका	-4010
▁आख	-4011
▁वाग	-4012
▁अल्प	-4013
▁हाता	-4014
▁अवस्थ	-4015
▁मागणी	-4016
राज्य	-4017
▁किमी	-4018
▁कर्मचा	-4019
▁पद्धती	-4020
▁एच	-4021
▁निष्	-4022
▁खाने	-4023
▁समिति	-4024
▁पर्याप्त	-4025
▁श्रृंखला	-4026
▁दान	-4027
्वर	-4028
▁झोप	-4029
▁होणे	-4030
म्प	-4031
▁तां	-4032
▁कर्त	-4033
ब्ल्यू	-4034
▁मान्य	-4035
▁वेळे	-4036
▁येतात	-4037
▁लागेल	-4038
▁लोकांचा	-4039
▁छु	-4040
▁समुद्री	-4041
▁गल	-4042
▁सित	-4043
▁पोषण	-4044
▁पातळी	-4045
▁प्रारंभ	-4046
▁पुनरु	-4047
प्न	-4048
▁मुख	-4049
▁निकट	-4050
▁हाती	-4051
▁महसूस	-4052
▁मानले	-4053
▁अस्पताल	-4054
.6	-4055
▁किस	-4056
▁ताप	-4057
▁ग्री	-4058
▁चांगला	-4059
्डा	-4060
ानंतर	-4061
नगर	-4062
▁निरा	-4063
▁राजधानी	-4064
टकों	-4065
▁सरदार	-4066
▁आश्वास	-4067
▁उत्साह	-4068
▁विधेयक	-4069
▁समझौते	-4070
▁एकमेक	-4071
▁ट्रेन	-4072
▁दिसून	-4073
जण	-4074
गीत	-4075
तरी	-4076
▁निभा	-4077
▁वेळा	-4078
▁साथी	-4079
तेच्या	-4080
ूब	-4081
ंकि	-4082
देशक	-4083
ांतर	-4084
▁उतर	-4085
▁कैं	-4086
▁सेवे	-4087
▁कार्ड	-4088
▁कोविद	-4089
▁जबाबदारी	-4090
▁भगिनी	-4091
▁सांगा	-4092
▁उत्तरा	-4093
फत	-4094
पाळ	-4095
्रिया	-4096
▁स्वातंत्र्य	-4097
डि	-4098
सीसी	-4099
▁कनेक्ट	-4100
▁क्रीडा	-4101
▁भेज	-4102
निंग	-4103
▁स्वप्न	-4104
नावर	-4105
▁यूर	-4106
▁दिखाई	-4107
▁देणार	-4108
▁साध्य	-4109
▁वीडियो	-4110
▁सुविधाओं	-4111
▁वजन	-4112
▁प्रस्तुत	-4113
ंनो	-4114
स्टम	-4115
▁लिहि	-4116
स्टी	-4117
▁बेथ	-4118
▁आणले	-4119
▁चांदी	-4120
▁मुली	-4121
▁बोर्ड	-4122
▁संग्रहालय	-4123
वाही	-4124
▁लाव	-4125
▁आश्च	-4126
▁संदेष्ट	-4127
▁महामार्ग	-4128
▁कृती	-4129
व्ही	-4130
▁स्थल	-4131
▁भुगतान	-4132
▁बचत	-4133
प्रिय	-4134
▁देवी	-4135
.3	-4136
▁देऊन	-4137
▁येतो	-4138
▁शहरा	-4139
▁सदस्यों	-4140
▁देशातल्या	-4141
स्वर	-4142
ळ्यात	-4143
▁गरजे	-4144
▁मदती	-4145
▁मानवी	-4146
▁वृक्ष	-4147
▁शुभार	-4148
▁सुख	-4149
▁आहार	-4150
▁झारखंड	-4151
▁वास्तविक	-4152
▁आत्मनिर्भर	-4153
▁अटल	-4154
▁नेता	-4155
▁स्मरण	-4156
▁स्तरावर	-4157
.7	-4158
▁मुद	-4159
▁पात्र	-4160
ri	-4161
जु	-4162
▁कसे	-4163
▁मरी	-4164
▁साप	-4165
▁वर्षा	-4166
▁संसाध	-4167
यत	-4168
वीत	-4169
▁फुट	-4170
▁शौल	-4171
शीलता	-4172
▁म्हणतात	-4173
ंटी	-4174
▁कॉर्प	-4175
▁लगाने	-4176
▁आकर्षित	-4177
▁विकासासाठी	-4178
▁गी	-4179
बंदी	-4180
▁पाहा	-4181
▁कधीही	-4182
▁हालांकि	-4183
▁वीर	-4184
तांना	-4185
▁तोंड	-4186
▁उर्वर	-4187
▁प्यार	-4188
शनल	-4189
▁उजा	-4190
ोगी	-4191
दाना	-4192
▁कौन	-4193
▁माना	-4194
जल	-4195
▁उत्पादों	-4196
▁शुभकामनाएं	-4197
ेन	-4198
गामी	-4199
▁उंची	-4200
▁चुनाव	-4201
▁तुलनेत	-4202
▁अंतरिक्ष	-4203
▁महत्त्वपूर्ण	-4204
▁वस	-4205
वृत्ती	-4206
विरुद्ध	-4207
▁स्टेशन	-4208
ेशनल	-4209
▁डाय	-4210
उंड	-4211
▁पॉ	-4212
▁वहां	-4213
▁मधुमे	-4214
ra	-4215
▁उज	-4216
▁तार	-4217
▁नक्	-4218
▁जिलों	-4219
▁पुनर्	-4220
▁विरोध	-4221
वाश	-4222
▁पोल	-4223
▁फैस	-4224
▁नव्हे	-4225
▁संगठन	-4226
▁स्मारक	-4227
▁यून	-4228
▁आसानी	-4229
▁मिळणार	-4230
▁वेगवेग	-4231
▁घेऊ	-4232
▁बांग	-4233
याच्या	-4234
▁देवाची	-4235
▁दुख	-4236
▁शपथ	-4237
िस्तान	-4238
▁प्रदेशात	-4239
टका	-4240
▁पेट्रोलियम	-4241
▁अबी	-4242
▁यही	-4243
▁गाँव	-4244
▁मागे	-4245
▁खंड	-4246
▁स्वाक्ष	-4247
▁संदर्भात	-4248
▁निम्न	-4249
▁यात्र	-4250
▁प्राधिक	-4251
▁संक्रमण	-4252
▁तरफ	-4253
▁त्यावर	-4254
▁खड़े	-4255
▁बीमारी	-4256
▁मंत्रिमंडळाने	-4257
▁2019-20	-4258
▁भ्रष्टा	-4259
▁रुग्णालया	-4260
▁जनता	-4261
▁अभिमान	-4262
▁प्री	-4263
▁लागला	-4264
▁अख	-4265
▁राहिला	-4266
▁उद्योजक	-4267
▁प्रतिक्रिया	-4268
ेत्र	-4269
▁नव्हते	-4270
▁आश्वासन	-4271
कडील	-4272
चारा	-4273
र्गा	-4274
ष्टि	-4275
▁जिसका	-4276
ंपरिक	-4277
▁जेथे	-4278
▁शाऊल	-4279
▁घरेलू	-4280
▁चीजें	-4281
▁शुभारंभ	-4282
कल	-4283
नाम	-4284
ेवर	-4285
▁तुर	-4286
▁लें	-4287
▁शकणार	-4288
▁पूर्वज	-4289
▁मुद्रा	-4290
▁पद्धतीने	-4291
▁ग्	-4292
संख्य	-4293
▁याचे	-4294
▁द्वीप	-4295
▁प्रसाद	-4296
▁४	-4297
▁बीमार	-4298
▁राहिले	-4299
▁कंपनियों	-4300
▁मार्गदर्शन	-4301
पो	-4302
▁आमची	-4303
▁आदर्श	-4304
नर	-4305
▁वीज	-4306
▁बुद्धि	-4307
▁सहकारी	-4308
▁प्रतिष्ठ	-4309
▁सिंग	-4310
▁अफ्री	-4311
▁वितरित	-4312
ल्यानंतर	-4313
▁2018-19	-4314
▁मुलांना	-4315
en	-4316
▁हार	-4317
स्टिक	-4318
▁तिस	-4319
ड़ियों	-4320
▁बाजारपे	-4321
▁त्यावेळी	-4322
▁उद	-4323
▁आश्चर्य	-4324
▁कर्मचार	-4325
▁महत्वाचे	-4326
स्म	-4327
शाला	-4328
▁नौकर	-4329
▁बुला	-4330
▁परमेश्वराची	-4331
▁गॅ	-4332
▁ढा	-4333
▁कां	-4334
रोज	-4335
▁जख	-4336
▁लाइ	-4337
▁बनाई	-4338
▁सादर	-4339
▁समन्वय	-4340
▁प्रयोगशाला	-4341
▁फी	-4342
▁खुश	-4343
▁अमेरिक	-4344
▁विचारों	-4345
दिन	-4346
▁जाव	-4347
▁रोड	-4348
चित्र	-4349
▁जिले	-4350
▁पाँच	-4351
▁ग्राहक	-4352
ेचा	-4353
▁पाड	-4354
▁बर्	-4355
▁विजय	-4356
▁समाजा	-4357
तेचा	-4358
▁ठार	-4359
▁सोच	-4360
्यायला	-4361
▁गर्म	-4362
▁साधन	-4363
▁प्रत्ये	-4364
▁ज्यामुळे	-4365
TI	-4366
▁धर्	-4367
▁शौचा	-4368
▁बदलाव	-4369
▁मंदिरात	-4370
▁लोकांचे	-4371
▁नवीकरणीय	-4372
▁भय	-4373
▁अश्	-4374
▁शक्यता	-4375
ानिमित्त	-4376
es	-4377
▁आसपास	-4378
▁श्रेणी	-4379
ानुसार	-4380
▁अध्ययन	-4381
▁संध्या	-4382
▁मंत्रालयाच्या	-4383
मोर	-4384
क्कम	-4385
▁नाग	-4386
▁पहला	-4387
▁भागा	-4388
▁भारी	-4389
▁अनुमान	-4390
▁हस्तांतर	-4391
लात	-4392
लेट	-4393
शाही	-4394
▁आरा	-4395
▁बाळ	-4396
िविटी	-4397
▁तक्र	-4398
▁निघा	-4399
▁जरूरत	-4400
▁स्वरूप	-4401
▁खाते	-4402
लाईन	-4403
▁डॉलर	-4404
▁साठी	-4405
▁राहू	-4406
▁सिंगा	-4407
▁उपायों	-4408
▁पित	-4409
▁सप्ता	-4410
स्तर	-4411
▁हल्	-4412
▁सकें	-4413
▁निवडण	-4414
▁कार्यक्रमात	-4415
▁पार्श्व	-4416
▁महिन्यात	-4417
.8	-4418
विन	-4419
▁बीज	-4420
▁अर्ज	-4421
▁बेटी	-4422
्यांसाठी	-4423
▁देशांच्या	-4424
▁योजनेअंतर्गत	-4425
▁वज	-4426
▁उघड	-4427
▁खरो	-4428
▁कॉले	-4429
▁सर्वा	-4430
प्रकारे	-4431
▁कोरिया	-4432
▁श्रीलं	-4433
वरून	-4434
▁पेर	-4435
▁आंदोलन	-4436
▁आसा	-4437
▁घाटी	-4438
हीम	-4439
▁कोशि	-4440
▁देखरे	-4441
▁देवाला	-4442
चाल	-4443
भारत	-4444
▁संख्य	-4445
ऱ्यांनी	-4446
▁पोट	-4447
ंजी	-4448
रोप	-4449
ुति	-4450
▁शेतकऱ्यांना	-4451
करिता	-4452
▁याको	-4453
ळाच्या	-4454
▁पुलिस	-4455
▁प्राधान्य	-4456
ौन	-4457
-18	-4458
▁सकाळी	-4459
ंडा	-4460
▁तला	-4461
▁बजट	-4462
▁मौसम	-4463
▁अनुमति	-4464
▁पाय	-4465
▁वेत	-4466
▁चक्र	-4467
▁मोबाइल	-4468
▁उत	-4469
ोरेट	-4470
▁शिम	-4471
▁मेहन	-4472
▁अवलंब	-4473
▁स्वस्थ	-4474
▁दिवसा	-4475
भि	-4476
▁हासिल	-4477
▁लोकप्रिय	-4478
▁राष्ट्रों	-4479
पटा	-4480
▁फैला	-4481
,5	-4482
▁वाटत	-4483
▁प्राथमिकता	-4484
ंकर	-4485
ंधन	-4486
लेस	-4487
▁समोर	-4488
▁असलेली	-4489
▁कार्यरत	-4490
▁जागरूकता	-4491
▁नागरिकांना	-4492
द्द	-4493
िसू	-4494
▁उपभ	-4495
▁बाग	-4496
▁पेक्षा	-4497
▁पारंपरिक	-4498
▁कर्मचारियों	-4499
▁राज्यमंत्री	-4500
▁मौजूद	-4501
वट	-4502
वाणी	-4503
ॉर्म	-4504
▁एयर	-4505
▁जवान	-4506
▁मुंह	-4507
▁कोशिश	-4508
▁संघर्ष	-4509
ण्ड	-4510
▁फॉर	-4511
▁शान	-4512
▁याला	-4513
▁चढ़ा	-4514
▁विवे	-4515
▁देशभरात	-4516
▁35	-4517
▁बुराई	-4518
ोबत	-4519
्राइ	-4520
▁असू	-4521
त्रिक	-4522
सारखा	-4523
▁दीवार	-4524
न्द	-4525
▁रखी	-4526
▁गोयल	-4527
▁मिळते	-4528
▁निपटने	-4529
▁प्रावधान	-4530
▁शाह	-4531
▁Indi	-4532
▁पटेल	-4533
▁एड	-4534
▁कौत	-4535
कर्ता	-4536
▁जावे	-4537
▁बनने	-4538
▁अधिसू	-4539
देव	-4540
▁लोकांची	-4541
▁कनेक्टिविटी	-4542
ay	-4543
बला	-4544
▁(1	-4545
▁हर्षवर्धन	-4546
▁लु	-4547
▁अगस्त	-4548
लिक	-4549
▁दल	-4550
▁काढून	-4551
▁शिकाय	-4552
▁घृ	-4553
▁जानता	-4554
शास्त्र	-4555
▁छह	-4556
▁भव्य	-4557
▁कौतुक	-4558
▁विस्तृत	-4559
▁आभ	-4560
▁रथ	-4561
▁दार	-4562
▁कठोर	-4563
▁भांड	-4564
▁शीर्ष	-4565
▁केंद्रा	-4566
तीला	-4567
तेने	-4568
न्ना	-4569
राला	-4570
▁विप	-4571
▁स्क	-4572
▁टप्प	-4573
▁लवकरच	-4574
▁देण्याची	-4575
खन	-4576
ष्मान	-4577
▁राजनी	-4578
▁सहभाग	-4579
▁परिषदेत	-4580
▁लॉकडाऊन	-4581
▁U	-4582
व्यात	-4583
▁इलाज	-4584
▁आपत्ती	-4585
▁आयुर्व	-4586
▁संबंधी	-4587
▁नेत्यांनी	-4588
▁संय	-4589
▁खाजगी	-4590
▁जिल्हा	-4591
▁रचना	-4592
▁जनतेला	-4593
ॉप	-4594
बार	-4595
▁अग्	-4596
▁महोत्स	-4597
▁मित्रों	-4598
▁सामग्री	-4599
▁त्यासाठी	-4600
▁अद्	-4601
▁जिवंत	-4602
▁शब्दों	-4603
ंकन	-4604
▁बरा	-4605
▁मारा	-4606
▁जुलाई	-4607
▁लागते	-4608
▁पुस्तक	-4609
▁पंतप्रधानांच्या	-4610
▁उज्ज	-4611
▁खुले	-4612
▁पुष्क	-4613
▁कश्मीर	-4614
ूबर	-4615
▁500	-4616
▁लढाई	-4617
▁आगामी	-4618
▁वायरस	-4619
ऱ्यांच्या	-4620
िये	-4621
याने	-4622
▁भीड़	-4623
▁मालदी	-4624
▁रहेगा	-4625
▁पाण्या	-4626
ीय	-4627
सागर	-4628
▁दैन	-4629
▁भूत	-4630
▁जिथे	-4631
▁लंबे	-4632
▁क्रां	-4633
▁मिळाले	-4634
▁स्थायी	-4635
▁सांगत	-4636
▁मौजूदा	-4637
▁निस	-4638
▁मोड	-4639
▁जिनके	-4640
▁पंजा	-4641
▁तुम्हारी	-4642
र्ज	-4643
▁इका	-4644
▁रोटी	-4645
▁व्हावे	-4646
▁सप्ताह	-4647
▁उपाययोजना	-4648
याम	-4649
▁धी	-4650
्वान	-4651
▁तपासणी	-4652
▁पुष्कळ	-4653
▁टो	-4654
▁आजारा	-4655
▁अनुकूल	-4656
▁कायद्या	-4657
संबंधी	-4658
▁आंध्र	-4659
▁शास्त्र	-4660
▁बैल	-4661
▁उठाए	-4662
▁प्रकृति	-4663
▁सामान	-4664
▁सभ	-4665
▁मेक	-4666
▁रखना	-4667
▁बाजूला	-4668
▁उपलब्धता	-4669
षित	-4670
िर्	-4671
▁घट	-4672
▁अहम	-4673
▁बचाव	-4674
्हे	-4675
स्वरूप	-4676
▁टिक	-4677
▁वंशज	-4678
▁सामु	-4679
▁कोविंद	-4680
▁पूर	-4681
▁दुष्	-4682
ंगिक	-4683
▁धोका	-4684
▁भेटी	-4685
▁पोस्ट	-4686
बादी	-4687
▁सुव	-4688
▁उपास	-4689
▁घरात	-4690
▁आँखों	-4691
▁झाल्यावर	-4692
▁आराख	-4693
▁देशवास	-4694
▁नौसेना	-4695
केट	-4696
▁आसान	-4697
▁ठिकाण	-4698
▁देवाचे	-4699
▁पार्श्वभूमी	-4700
घर	-4701
माला	-4702
▁केस	-4703
क्टूबर	-4704
▁जुड़े	-4705
▁पराभव	-4706
▁मर्या	-4707
फे	-4708
गाह	-4709
नाश	-4710
▁झू	-4711
▁शो	-4712
▁उभय	-4713
▁नमूद	-4714
▁सुझा	-4715
▁आमंत्रित	-4716
भुत	-4717
▁पंचा	-4718
▁मुका	-4719
▁होकर	-4720
▁परवान	-4721
or	-4722
ार्ज	-4723
▁वालों	-4724
करून	-4725
▁झील	-4726
▁नाथ	-4727
▁नेहमीच	-4728
▁सशस्त्र	-4729
ासी	-4730
▁इतके	-4731
▁बर्फ	-4732
▁आह्वान	-4733
थि	-4734
ेलो	-4735
▁कब	-4736
▁आवड	-4737
▁सहन	-4738
▁अंदर	-4739
▁वन्य	-4740
▁अंतरावर	-4741
डक	-4742
▁आलो	-4743
▁खरोखर	-4744
▁मुद्दे	-4745
▁विनंती	-4746
ंश	-4747
बाम	-4748
▁तप	-4749
▁उद्ध	-4750
▁चुनौती	-4751
तेचे	-4752
्रेड	-4753
▁अहर	-4754
▁कृपा	-4755
▁छोटी	-4756
▁चेहरे	-4757
▁तीर्थ	-4758
एक	-4759
?";	-4760
ड़ित	-4761
त्रा	-4762
▁पुणे	-4763
फ़	-4764
▁तिर	-4765
▁बाज	-4766
▁महोत्सव	-4767
आधी	-4768
ध्दा	-4769
▁दूत	-4770
िय्याह	-4771
▁महासं	-4772
▁जिनमें	-4773
▁हरियाणा	-4774
▁ख्रिस्ता	-4775
▁जनवरी	-4776
▁जानवर	-4777
,4	-4778
▁रोम	-4779
▁पारदर्	-4780
▁मालदीव	-4781
▁अक्टूबर	-4782
त्तीस	-4783
▁श्रीमती	-4784
▁गुंतवणुकी	-4785
▁घु	-4786
▁सीम	-4787
शलक्ष	-4788
▁तिने	-4789
▁मिळत	-4790
▁शेती	-4791
किस्तान	-4792
▁एकीकृत	-4793
▁विद्यार्थी	-4794
▁श्	-4795
▁प्रसन्न	-4796
▁आकांक्षा	-4797
▁पर्यटकों	-4798
गृह	-4799
त्म	-4800
▁छि	-4801
▁पाव	-4802
▁तेरी	-4803
▁कमजोर	-4804
▁पंजाब	-4805
▁गहरा	-4806
▁पुजारी	-4807
▁परिवर्त	-4808
▁यासारख्या	-4809
▁बॉ	-4810
▁फूट	-4811
▁मत्	-4812
प्रती	-4813
▁वाळव	-4814
▁स्रोत	-4815
▁भारताचा	-4816
तान	-4817
दरा	-4818
िवा	-4819
▁80	-4820
▁दावीदा	-4821
विड	-4822
सेस	-4823
ाला	-4824
दायी	-4825
▁वायू	-4826
▁संगीत	-4827
▁जवळपास	-4828
▁राहणार	-4829
▁सितंबर	-4830
▁हिमाचल	-4831
आब	-4832
कारक	-4833
्यून	-4834
▁जिला	-4835
▁रखें	-4836
त्याने	-4837
▁अधर्म	-4838
▁विषयक	-4839
▁प्रतीक	-4840
▁स्पर्ध	-4841
दात	-4842
दूर	-4843
क्षेप	-4844
▁अध्या	-4845
▁2017-18	-4846
तल	-4847
▁मित्रहो	-4848
आप	-4849
▁पेड़	-4850
▁बाबी	-4851
▁करायचे	-4852
▁श्रद्धांजलि	-4853
▁आफ	-4854
▁ठा	-4855
▁लै	-4856
▁आपाप	-4857
▁ऊँचा	-4858
▁अवसरों	-4859
▁T	-4860
नेस्	-4861
▁आम्ह	-4862
▁चाहे	-4863
ांकडून	-4864
▁पैमाने	-4865
▁लोकशाही	-4866
▁कारख	-4867
▁तमिल	-4868
▁दशलक्ष	-4869
चक	-4870
पीई	-4871
▁बाकी	-4872
▁सिटी	-4873
स्तरीय	-4874
▁तकनीक	-4875
▁त्याग	-4876
▁पेंशन	-4877
▁नित	-4878
ोत्तर	-4879
▁कैंसर	-4880
जो	-4881
ीव	-4882
▁पैर	-4883
▁अमित	-4884
▁जपान	-4885
▁नोंदणी	-4886
▁वस्तूं	-4887
▁उत्तराखंड	-4888
▁कार्यालया	-4889
▁सोन	-4890
▁वेदना	-4891
तिरिक्त	-4892
▁मेडिकल	-4893
▁अधि	-4894
लाच्या	-4895
▁प्रमा	-4896
▁विचारले	-4897
▁उन्न	-4898
▁आयुष्मान	-4899
रुप	-4900
कुमार	-4901
▁नसेल	-4902
ँकि	-4903
पीय	-4904
याँ	-4905
▁अल्	-4906
▁उड़	-4907
त्कार	-4908
▁विनिर्माण	-4909
▁H	-4910
िप्	-4911
▁भौ	-4912
करोग	-4913
▁फोन	-4914
▁घाबर	-4915
▁निर्मित	-4916
▁मनुष्यबळ	-4917
▁पाहून	-4918
▁जवळजवळ	-4919
▁राजनाथ	-4920
▁राज्यपाल	-4921
▁भ्रष्टाचार	-4922
्वा	-4923
▁90	-4924
▁लौट	-4925
▁आपदा	-4926
▁चुके	-4927
▁दूसरा	-4928
ांपासून	-4929
▁प्राणी	-4930
▁बांधकाम	-4931
▁चुकी	-4932
▁कामका	-4933
▁निवार	-4934
▁मोहिम	-4935
▁कोणाला	-4936
▁सध्याच्या	-4937
रील	-4938
ितीय	-4939
▁डोंग	-4940
▁मिलकर	-4941
▁संग्रह	-4942
फ्त	-4943
▁मृत	-4944
▁पहिला	-4945
▁साधला	-4946
▁हालाँकि	-4947
▁150	-4948
▁समग्र	-4949
▁बिलियन	-4950
▁रास्ता	-4951
▁नकोस	-4952
▁बारा	-4953
▁मिळाला	-4954
▁महामहिम	-4955
▁कदा	-4956
▁गती	-4957
▁भंड	-4958
▁आठवण	-4959
▁विजे	-4960
▁प्रदू	-4961
उस	-4962
आईडी	-4963
▁अवि	-4964
▁इरा	-4965
▁मनात	-4966
▁लिखा	-4967
▁विद्यापीठ	-4968
▁मंत्रिमंडळाची	-4969
चने	-4970
▁तरत	-4971
▁मोज	-4972
▁नेशनल	-4973
▁येशूने	-4974
▁सिंहास	-4975
▁बँके	-4976
धित	-4977
▁अका	-4978
▁मरण	-4979
▁वेतन	-4980
▁सहमत	-4981
▁अनुदान	-4982
▁हिस्सों	-4983
▁प्रकारचे	-4984
,1	-4985
शूर	-4986
ूहिक	-4987
▁गॅस	-4988
▁ड्र	-4989
▁हिज	-4990
▁सागरी	-4991
▁काहीही	-4992
ंशी	-4993
.9	-4994
▁नोक	-4995
▁पदक	-4996
▁ट्रै	-4997
▁बाबा	-4998
▁तुमसे	-4999
▁सामूहिक	-5000
कोप	-5001
▁टै	-5002
विण्यात	-5003
▁बढ़ाया	-5004
▁पूर्णपणे	-5005
▁व्यवस्थाप	-5006
▁क्षमा	-5007
▁शिकार	-5008
▁कॉन्फर	-5009
▁मधुमेह	-5010
ोवर	-5011
▁साकार	-5012
▁अडच	-5013
त्मिक	-5014
▁रसायन	-5015
▁इथल्या	-5016
ताप	-5017
▁उभा	-5018
▁चमक	-5019
▁पिक	-5020
▁भाऊ	-5021
▁हाँ	-5022
▁सगळे	-5023
▁सज्ज	-5024
लु	-5025
▁साब	-5026
▁सुश	-5027
ंदर्य	-5028
▁इनमें	-5029
▁मुलगे	-5030
कर्ताओं	-5031
,7	-5032
▁ओडि	-5033
▁धार	-5034
▁सारे	-5035
▁आबादी	-5036
▁अद्भुत	-5037
▁शेवट	-5038
ल्याचे	-5039
▁पीड़ित	-5040
टली	-5041
▁फू	-5042
▁लेते	-5043
▁सौंदर्य	-5044
डेट	-5045
णाचल	-5046
▁परेश	-5047
▁परामर्श	-5048
▁आयुर्वेद	-5049
ेगा	-5050
ांपैकी	-5051
▁अब्रा	-5052
▁सिर्फ	-5053
डो	-5054
▁ऐप	-5055
च्चा	-5056
▁अरब	-5057
चारिक	-5058
▁वाचा	-5059
▁सिने	-5060
▁उपग्रह	-5061
▁परदेशी	-5062
▁संरचना	-5063
II	-5064
▁जलद	-5065
▁हेच	-5066
विधान	-5067
शासित	-5068
▁दिग्	-5069
▁पक्षी	-5070
▁गांवों	-5071
▁राजकीय	-5072
▁सम्मानित	-5073
▁होण्याची	-5074
दो	-5075
▁खी	-5076
▁दिख	-5077
▁दृष्टीको	-5078
ोरम	-5079
▁कशा	-5080
▁सीओ	-5081
▁कपडे	-5082
▁साजरा	-5083
क्तिमान	-5084
▁सातत्याने	-5085
शिला	-5086
प्रदेश	-5087
▁संवेदन	-5088
▁लाभार्थियों	-5089
ूम	-5090
दोन	-5091
▁चो	-5092
▁जोख	-5093
▁नजर	-5094
▁बळकट	-5095
▁जाणून	-5096
▁यहुवे	-5097
ल्यामुळे	-5098
▁उपस्थिति	-5099
▁मनश्	-5100
णार्या	-5101
▁आघा	-5102
▁मधील	-5103
▁नवंबर	-5104
▁अंतराळ	-5105
▁देखरेख	-5106
▁प्रतिभा	-5107
,6	-5108
ंगत	-5109
▁मुझसे	-5110
▁तुम्हा	-5111
▁सिस्टम	-5112
पादन	-5113
▁फंड	-5114
▁किनार	-5115
▁बढ़ती	-5116
▁भरपूर	-5117
▁माननीय	-5118
▁चाचण्या	-5119
▁त्याचबरोबर	-5120
ेज	-5121
ॉजी	-5122
▁एकता	-5123
▁देती	-5124
▁कर्करोग	-5125
▁यंत्रणा	-5126
,2	-5127
ME	-5128
समा	-5129
▁सृ	-5130
▁पेय	-5131
▁साय	-5132
▁उम्र	-5133
▁घृणा	-5134
▁वडील	-5135
▁तुमने	-5136
थ्य	-5137
▁कच	-5138
▁नवे	-5139
▁लंबा	-5140
▁तरतूद	-5141
▁होण्यासाठी	-5142
ंथ	-5143
▁देईन	-5144
▁दृश्य	-5145
▁धोरणात्मक	-5146
▁प्राधिकरण	-5147
▁वेगवेगळ्या	-5148
हम	-5149
श्रम	-5150
▁कपड़े	-5151
▁इच्छित	-5152
▁समृद्धि	-5153
मिळ	-5154
ंचाई	-5155
स्ति	-5156
▁बजे	-5157
लियों	-5158
▁काळा	-5159
▁वाढत	-5160
▁संसाधनों	-5161
▁सर्वशक्तिमान	-5162
ओयू	-5163
▁कठी	-5164
▁पां	-5165
▁शाम	-5166
▁साठ	-5167
देशिक	-5168
्रेंस	-5169
वाच्या	-5170
▁दिव्या	-5171
▁दौऱ्या	-5172
▁कार्यकारी	-5173
घात	-5174
याचे	-5175
▁युर	-5176
▁कुठे	-5177
▁घडवून	-5178
▁प्राय	-5179
ोवती	-5180
▁कठीण	-5181
▁असलेला	-5182
▁परवानगी	-5183
▁विमानतळ	-5184
▁व्यापारी	-5185
जीव	-5186
▁राय	-5187
▁प्रच	-5188
▁अश्शूर	-5189
▁पुत्रों	-5190
▁कॉन्फरन्स	-5191
जित	-5192
▁नक	-5193
▁गाय	-5194
वियों	-5195
▁आठवड	-5196
▁ओडिशा	-5197
▁पुराने	-5198
▁लाभार्थी	-5199
ताच	-5200
लाही	-5201
▁पावले	-5202
▁बाबतीत	-5203
▁देशांमध्ये	-5204
किल	-5205
▁37	-5206
▁असम	-5207
▁प्लेट	-5208
▁आकर्षण	-5209
▁हितधार	-5210
▁मछ	-5211
▁घाट	-5212
▁दगड	-5213
धिकार	-5214
▁सिक्	-5215
▁जापान	-5216
▁ब्रिट	-5217
▁गुन	-5218
▁सीएस	-5219
▁गर्भा	-5220
डीओ	-5221
सीय	-5222
ित्स	-5223
▁दाखव	-5224
▁शकतील	-5225
▁छत्तीस	-5226
▁प्रादेशिक	-5227
▁खि	-5228
यंकर	-5229
▁शिष्य	-5230
▁अर्थसं	-5231
▁कदाचित	-5232
▁विविधता	-5233
▁सिल	-5234
दाबाद	-5235
▁कुंभ	-5236
▁राशि	-5237
▁मेहनत	-5238
फॉर्म	-5239
रुध्द	-5240
▁श्वास	-5241
ोषण	-5242
▁कक्ष	-5243
▁व्हिड	-5244
▁प्रवाह	-5245
▁मिलेगी	-5246
▁काश्मीर	-5247
ंभा	-5248
त्तर	-5249
हायला	-5250
▁प्राण	-5251
▁सचिवा	-5252
म्ब	-5253
is	-5254
ज़र	-5255
▁अपे	-5256
▁सीधे	-5257
▁मिलेगा	-5258
▁संसर्ग	-5259
्‍	-5260
▁चक	-5261
▁साख	-5262
स्पर्	-5263
▁जेणे	-5264
▁लप	-5265
▁सव	-5266
▁रखता	-5267
▁उत्सव	-5268
▁व्यवसा	-5269
▁असणाऱ्या	-5270
▁भारतीयों	-5271
▁शेतकऱ्यां	-5272
जनक	-5273
लास	-5274
▁फळ	-5275
ब्दी	-5276
▁डोक	-5277
▁राजाओं	-5278
▁प्रतिमा	-5279
राचे	-5280
▁विक्र	-5281
▁सुद्धा	-5282
▁धूप	-5283
प्रेस	-5284
▁Indias	-5285
▁याबाबत	-5286
▁संघटने	-5287
▁संपत्ती	-5288
र्ती	-5289
▁आघाडी	-5290
▁भयंकर	-5291
▁अनुरोध	-5292
▁खात्री	-5293
▁मूल्यांकन	-5294
कीम	-5295
कार्	-5296
नाडु	-5297
▁खूब	-5298
▁सिय	-5299
▁सीख	-5300
▁होय	-5301
विष्ट	-5302
▁सोशल	-5303
▁मैत्री	-5304
▁प्रदर्शित	-5305
▁उर्जा	-5306
▁उत्तरे	-5307
▁व्हिडिओ	-5308
▁दिव्यांग	-5309
▁शम	-5310
▁शेर	-5311
▁टेली	-5312
▁लाइन	-5313
टाच्या	-5314
▁ईशान्य	-5315
▁शौचालय	-5316
▁वस्तुओं	-5317
▁सर्वाधिक	-5318
▁परमेश्वराचे	-5319
ii	-5320
▁सूची	-5321
▁ठेवून	-5322
▁बनाना	-5323
▁स्तंभ	-5324
▁वस्त्र	-5325
सारखी	-5326
▁दुसरा	-5327
▁भारतीया	-5328
फर	-5329
▁गोल	-5330
▁लेख	-5331
▁शिव	-5332
▁वाणी	-5333
▁करोगे	-5334
▁प्रका	-5335
▁संविधान	-5336
▁महत्वाची	-5337
▁बाव	-5338
लिखित	-5339
▁ठरेल	-5340
▁स्थळ	-5341
▁दिवसात	-5342
▁तांत्रिक	-5343
ंका	-5344
वावे	-5345
▁राजाला	-5346
▁आओ	-5347
ताच्या	-5348
▁केंद्रों	-5349
ान्स	-5350
▁वाद	-5351
▁दृढ़	-5352
▁सरोवर	-5353
▁देवाचा	-5354
▁पहाड़ी	-5355
▁भगिनींनो	-5356
▁केंद्रशासित	-5357
▁सन	-5358
▁कटि	-5359
▁नामक	-5360
▁नियुक्त	-5361
▁जीत	-5362
▁रिस	-5363
भाग्य	-5364
▁नेले	-5365
▁अनावरण	-5366
▁करारावर	-5367
▁माणसाला	-5368
▁उल्लेखनीय	-5369
,8	-5370
वाण	-5371
हेब	-5372
विली	-5373
▁कोट	-5374
▁कामे	-5375
▁घेणे	-5376
▁मिली	-5377
▁लगाया	-5378
▁अरुणाचल	-5379
▁बिन	-5380
▁असता	-5381
▁अधोरे	-5382
▁कोणते	-5383
▁जुड़ा	-5384
▁पड़ता	-5385
▁हजारों	-5386
▁अमेरिकी	-5387
▁समस्याओं	-5388
▁व्यक्तिगत	-5389
▁प्रस्तावित	-5390
▁घो	-5391
▁इतकी	-5392
▁घेता	-5393
ांमधील	-5394
▁चारों	-5395
▁अफ्रीका	-5396
▁चिकित्स	-5397
▁रणनीतिक	-5398
▁जाणाऱ्या	-5399
दंड	-5400
▁गाठ	-5401
तेची	-5402
▁मौत	-5403
निमित्त	-5404
▁बोलताना	-5405
▁अस्त	-5406
तीच्या	-5407
गान	-5408
ेडकर	-5409
▁बें	-5410
▁मंदिराच्या	-5411
ST	-5412
ांकित	-5413
▁बाजारपेठ	-5414
फाई	-5415
सूर	-5416
्रेष्ठ	-5417
▁हल्ला	-5418
▁खेळ	-5419
▁विल	-5420
▁पाठि	-5421
▁एखादा	-5422
▁कमांड	-5423
▁वस्तु	-5424
▁कोळ	-5425
▁द्र	-5426
▁शराब	-5427
▁सरकारचे	-5428
it	-5429
र्जे	-5430
▁ऐका	-5431
▁मां	-5432
▁जांच	-5433
▁किमान	-5434
▁कोणती	-5435
▁कार्यक्रमों	-5436
▁तय	-5437
▁गरम	-5438
▁जोड़	-5439
▁पंजी	-5440
▁यहूद	-5441
▁ज्यांना	-5442
▁राष्ट्राध्यक्ष	-5443
▁मशी	-5444
पचारिक	-5445
▁हारून	-5446
▁किनारे	-5447
▁मनश्शे	-5448
▁राजाने	-5449
▁प्रयोगशाळा	-5450
▁सदी	-5451
▁पुढा	-5452
▁लड़ने	-5453
▁निरोगी	-5454
▁कराराला	-5455
▁भविष्यात	-5456
अल	-5457
िनार	-5458
▁पीढ़ी	-5459
▁फिल्मों	-5460
▁तंत्रज्ञानाचा	-5461
▁डाक	-5462
▁एवढे	-5463
▁दररोज	-5464
▁सहायक	-5465
▁संबोधन	-5466
पती	-5467
▁एक्	-5468
▁अब्ज	-5469
▁डॉलर्स	-5470
▁मूर्ति	-5471
▁संचालक	-5472
▁संवर्धन	-5473
चि	-5474
वै	-5475
्ती	-5476
ापित	-5477
्‍या	-5478
▁चुका	-5479
▁आध्या	-5480
▁अधोरेखित	-5481
▁शक्तिशाली	-5482
▁परिणामस्वरूप	-5483
जेत	-5484
पालन	-5485
पीएफ	-5486
पोर्ट	-5487
▁इंडो	-5488
▁रहती	-5489
▁कार्र	-5490
▁छोट्या	-5491
▁असल्यामुळे	-5492
)।	-5493
खल	-5494
▁चढ	-5495
काचे	-5496
ज्ञा	-5497
्वित	-5498
▁अभिष	-5499
▁अम्म	-5500
▁तमिलनाडु	-5501
पति	-5502
पीसी	-5503
▁काशी	-5504
▁बाबुल	-5505
षा	-5506
and	-5507
सात	-5508
▁स्कूल	-5509
▁करणारा	-5510
▁त्यांच्यावर	-5511
कूब	-5512
ट्स	-5513
▁औषधे	-5514
▁मॉडल	-5515
▁चेहरा	-5516
▁दुर्ग	-5517
▁इंडियन	-5518
मैं	-5519
वणे	-5520
रोधी	-5521
िव्ह	-5522
शक्ती	-5523
तेसाठी	-5524
▁कराया	-5525
▁राज्ये	-5526
▁संगठनों	-5527
▁सचिवालय	-5528
▁उपाययोजन	-5529
ंव	-5530
ांसह	-5531
ैर्य	-5532
वायला	-5533
▁राहतील	-5534
इम	-5535
▁वध	-5536
न्नई	-5537
पीजी	-5538
▁अभूत	-5539
▁सुनी	-5540
▁इस्ते	-5541
▁त्वरित	-5542
▁इस्तेमाल	-5543
▁अभूतपूर्व	-5544
▁आणण्यासाठी	-5545
वजी	-5546
ैली	-5547
लांग	-5548
▁बीमा	-5549
▁मानक	-5550
▁आध्यात्मिक	-5551
▁लक	-5552
क्चर	-5553
प्रा	-5554
▁नार	-5555
▁रहें	-5556
▁पैरों	-5557
▁साधारण	-5558
▁कर्तव्य	-5559
▁कॉर्पोरेट	-5560
▁प्रतिस्पर्	-5561
ग्ध	-5562
वतो	-5563
▁उपकर	-5564
▁एकाच	-5565
▁छोटा	-5566
▁जागी	-5567
▁अडचणी	-5568
▁वंचित	-5569
▁स्वदेशी	-5570
▁हॉ	-5571
वाना	-5572
▁दाय	-5573
▁माइ	-5574
▁कहीं	-5575
▁वैशिष्ट	-5576
राचा	-5577
▁शिकवण	-5578
▁रुपयांची	-5579
IC	-5580
▁गुफा	-5581
▁नसते	-5582
▁भेंट	-5583
▁लाखों	-5584
▁पहुँचा	-5585
▁शानदार	-5586
ड़कों	-5587
वीआईडी	-5588
▁तेथील	-5589
▁राजनीतिक	-5590
च्चार	-5591
▁बाधा	-5592
▁विमा	-5593
▁सलाम	-5594
▁तरीही	-5595
▁दिशान	-5596
▁कार्रवाई	-5597
सब	-5598
विर	-5599
▁फस	-5600
काता	-5601
▁मेजब	-5602
्लादेश	-5603
▁अंदाज	-5604
▁पार्श्वभूमीवर	-5605
▁सोल	-5606
प्रति	-5607
▁एजें	-5608
▁चुना	-5609
ख्यिकी	-5610
▁तयारी	-5611
▁पैकेज	-5612
▁द्यावे	-5613
▁प्रचार	-5614
पाला	-5615
▁ब्रा	-5616
▁व्हि	-5617
▁भिंती	-5618
ापर्यंत	-5619
▁उत्सुक	-5620
▁स्टार्टअप	-5621
,9	-5622
कश	-5623
ळीत	-5624
ेची	-5625
▁भूक	-5626
▁ग्रह	-5627
▁पाऊल	-5628
▁रोकने	-5629
▁ऑनलाईन	-5630
▁विशेषतः	-5631
,3	-5632
इंग	-5633
ळावर	-5634
▁जुन	-5635
▁तलाश	-5636
▁ज्यात	-5637
▁देतात	-5638
▁बढ़ने	-5639
▁तत्त्व	-5640
▁पुष्टि	-5641
थान	-5642
संबर	-5643
▁शिला	-5644
▁उज्ज्व	-5645
▁मत्स्य	-5646
जूद	-5647
परी	-5648
▁केरल	-5649
▁अवश्य	-5650
▁बावजूद	-5651
▁पैसा	-5652
▁जोखिम	-5653
▁बदलने	-5654
▁अनिवार	-5655
▁दरवाजे	-5656
▁व्यायाम	-5657
ढ़े	-5658
▁नो	-5659
▁आंख	-5660
▁अंधे	-5661
▁ईमान	-5662
▁तारी	-5663
▁स्थिरता	-5664
▁आम्हांला	-5665
▁सर्वश्रेष्ठ	-5666
क्न	-5667
माणिक	-5668
िर्देश	-5669
▁प्रथा	-5670
▁याकूब	-5671
▁चेन्नई	-5672
▁स्पर्श	-5673
▁कटिबद्ध	-5674
▁याशिवाय	-5675
▁देण्याचे	-5676
▁अधिकाऱ्यां	-5677
▁कॉन्फ्रेंस	-5678
▁महत्वाच्या	-5679
▁दिशानिर्देश	-5680
▁मंडळ	-5681
▁रोजग	-5682
▁कोणता	-5683
▁मारले	-5684
न्तु	-5685
वाहा	-5686
▁खेत	-5687
▁पुरे	-5688
ग्रस्त	-5689
रळ	-5690
एसए	-5691
▁आती	-5692
▁पड़ा	-5693
▁वाटा	-5694
▁स्पर्धा	-5695
▁सहकार्या	-5696
25	-5697
▁२०१	-5698
▁स्कू	-5699
लोम	-5700
ार्म	-5701
▁तोड	-5702
▁असले	-5703
▁बलों	-5704
दायिक	-5705
ेश्वर	-5706
▁दवाओं	-5707
▁शांती	-5708
चालन	-5709
▁नेम	-5710
गीकरण	-5711
ासाठी	-5712
▁तोड़	-5713
▁सत्ता	-5714
▁जितेंद्र	-5715
▁त्याच्यावर	-5716
▁निम्नलिखित	-5717
▁अहा	-5718
▁कड़ी	-5719
▁बारह	-5720
ण्यावर	-5721
▁मिलने	-5722
▁बुलाया	-5723
▁ह्याच्या	-5724
ईम	-5725
▁कसा	-5726
ताब्दी	-5727
▁वाळवंट	-5728
▁स्तुती	-5729
▁द्राक्ष	-5730
▁कालावधीत	-5731
ch	-5732
▁नारा	-5733
▁धान्य	-5734
▁रक्कम	-5735
▁स्नान	-5736
▁दिसंबर	-5737
▁द्वारे	-5738
▁माझ्यावर	-5739
AR	-5740
▁L	-5741
ोपीय	-5742
▁कॉर	-5743
▁अवशेष	-5744
▁पलिश्	-5745
▁सत्या	-5746
▁ख्रिस्त	-5747
▁अंतरराष्ट्रीय	-5748
▁बेल	-5749
▁अद्य	-5750
▁महासागर	-5751
og	-5752
धीश	-5753
ार्द	-5754
ेंडर	-5755
▁किर	-5756
▁दोघ	-5757
▁रिकॉर्ड	-5758
िना	-5759
▁नगरी	-5760
▁पीने	-5761
▁मूत्र	-5762
▁केलेली	-5763
▁स्तरीय	-5764
▁उपकरणों	-5765
▁वेबिनार	-5766
▁विपण	-5767
▁उसमें	-5768
▁रोगों	-5769
▁येत्या	-5770
▁कोलकाता	-5771
▁पातळीवर	-5772
▁सर्वांनी	-5773
▁सिद्धांत	-5774
▁धार्मिकता	-5775
▁इलेक्ट्रॉनिक	-5776
फल	-5777
ृति	-5778
सेवा	-5779
तालों	-5780
▁पकड़	-5781
▁पृष्ठ	-5782
▁नव्हता	-5783
▁वाटचाल	-5784
षक	-5785
▁आइ	-5786
तेला	-5787
ब्बा	-5788
कांना	-5789
▁राहून	-5790
▁पत्रकार	-5791
▁अस्पतालों	-5792
▁देशभरातील	-5793
टान	-5794
सेफ	-5795
ारस	-5796
▁सेंट	-5797
▁जल्दी	-5798
▁नाहीस	-5799
▁सगळ्या	-5800
▁मुकाबला	-5801
▁क्षेत्राला	-5802
्डी	-5803
इटिस	-5804
▁दुः	-5805
▁वही	-5806
▁सेट	-5807
▁आईटी	-5808
▁नींव	-5809
▁नाविन	-5810
▁मिश्र	-5811
▁अनिवार्य	-5812
▁प्रतिष्ठित	-5813
ौल	-5814
ँचे	-5815
किम	-5816
▁हेत	-5817
.2020	-5818
वर्ती	-5819
▁उपभो	-5820
▁पाठ्य	-5821
▁मिलता	-5822
▁विक्री	-5823
▁आपापल्या	-5824
▁सांगितल्या	-5825
▁नॅ	-5826
जाती	-5827
▁वजह	-5828
▁निदेशक	-5829
▁स्वाक्षऱ्या	-5830
वता	-5831
▁36	-5832
▁हड	-5833
र्मा	-5834
लैंड	-5835
▁अहरोन	-5836
▁शिकायत	-5837
▁जिम्मेदारी	-5838
-21	-5839
क्का	-5840
▁चर्चे	-5841
▁यावर्षी	-5842
▁राजकुमार	-5843
▁लोकतंत्र	-5844
गण	-5845
याचा	-5846
▁जरी	-5847
▁रैं	-5848
▁मातृ	-5849
▁ठेवला	-5850
▁शिफार	-5851
▁पक्षों	-5852
▁बुद्धिमान	-5853
▁फसल	-5854
▁बनी	-5855
▁अस्थ	-5856
▁कुठल्या	-5857
▁संचालित	-5858
,0	-5859
▁F	-5860
ध्व	-5861
ल्थ	-5862
सीटी	-5863
▁दबा	-5864
▁तेलंग	-5865
प्पा	-5866
▁भरा	-5867
▁बेटा	-5868
▁नक्की	-5869
▁उपयोगी	-5870
▁झालेले	-5871
▁शत्रूं	-5872
▁शस्त्र	-5873
▁नियंत्रित	-5874
SME	-5875
▁दशक	-5876
▁इसने	-5877
▁गोळा	-5878
▁शिशु	-5879
जरी	-5880
▁काउ	-5881
▁खान	-5882
नातून	-5883
▁एम्स	-5884
▁खालील	-5885
▁तैनात	-5886
यण	-5887
▁सागर	-5888
▁दुसरी	-5889
▁पहिले	-5890
▁पर्यटना	-5891
▁चित्रपटा	-5892
▁प्रक्रिय	-5893
▁दिनानिमित्त	-5894
ंबू	-5895
र्द	-5896
▁कैद	-5897
मिळना	-5898
▁कमतर	-5899
▁करनी	-5900
▁करीब	-5901
▁देखी	-5902
▁निरी	-5903
▁यहोश	-5904
▁यानी	-5905
▁सुलै	-5906
▁सुरेश	-5907
डब्ल्यू	-5908
▁आकर्षक	-5909
▁कुटुंबा	-5910
▁श्रीलंका	-5911
▁सीओवीआईडी	-5912
ब्ब	-5913
▁बद	-5914
लमोन	-5915
ार्ता	-5916
▁अक्ष	-5917
▁केरळ	-5918
▁सबका	-5919
▁आजच्या	-5920
▁उद्धार	-5921
▁सुलैमान	-5922
▁एक्सप्रेस	-5923
▁32	-5924
▁चौक	-5925
▁हवी	-5926
▁जनरल	-5927
शाच्या	-5928
▁गावात	-5929
▁विषया	-5930
▁येशूला	-5931
विला	-5932
▁तित	-5933
▁निती	-5934
▁दुर्घ	-5935
▁साहित	-5936
▁पाहिजेत	-5937
▁जिल्ह्यात	-5938
▁प्रामाणिक	-5939
▁वळ	-5940
▁पहाड़	-5941
▁नावाने	-5942
▁प्रतिसाद	-5943
गंध	-5944
त्ये	-5945
▁अमा	-5946
▁लेन	-5947
▁सदैव	-5948
▁प्रोट	-5949
▁विकासाच्या	-5950
दाब	-5951
बान	-5952
▁भरो	-5953
▁छाया	-5954
▁टर्म	-5955
▁ऊँचाई	-5956
▁ऊर्जे	-5957
▁मुख्या	-5958
▁अन्	-5959
▁डोळ	-5960
▁नमु	-5961
मुक्त	-5962
▁वाहि	-5963
▁स्पे	-5964
टो	-5965
▁दफ	-5966
▁निदान	-5967
▁प्रसं	-5968
▁सुझाव	-5969
▁सुधारण	-5970
▁चमत्कार	-5971
▁बांग्लादेश	-5972
ad	-5973
ेंज	-5974
▁अवगत	-5975
▁इमारत	-5976
▁मंजूर	-5977
मधे	-5978
▁डेव	-5979
▁पाने	-5980
▁हिंसा	-5981
विश्वास	-5982
▁एकात्म	-5983
▁मोबाईल	-5984
▁सर्वसा	-5985
▁वर्षाच्या	-5986
▁अय	-5987
डीला	-5988
हारी	-5989
▁कोश	-5990
▁खादी	-5991
▁दोहरा	-5992
▁प्रकट	-5993
▁यहोया	-5994
▁शलमोन	-5995
▁अधिकांश	-5996
▁प्रवासा	-5997
▁वचनबद्ध	-5998
▁क्षेत्रातल्या	-5999
नु	-6000
व्व	-6001
ंटों	-6002
▁जेट	-6003
18	-6004
ur	-6005
▁तळ	-6006
▁पत	-6007
र्चा	-6008
▁चिन	-6009
▁रवि	-6010
▁खोटे	-6011
▁जेवण	-6012
▁माजी	-6013
▁तुरंत	-6014
▁गांधीजी	-6015
▁असल्याने	-6016
▁NI	-6017
▁असत	-6018
▁आजा	-6019
▁पिढी	-6020
▁लगेच	-6021
▁आलेले	-6022
▁प्रां	-6023
▁लोकसभा	-6024
▁परिषदेच्या	-6025
▁PM	-6026
▁इन्फ	-6027
▁धारा	-6028
▁मिळू	-6029
▁बातों	-6030
▁लागतो	-6031
▁याह्वे	-6032
▁दरवर्षी	-6033
▁पाल	-6034
▁सापड	-6035
▁सहमती	-6036
▁देशाची	-6037
▁नदीच्या	-6038
लप	-6039
▁199	-6040
▁ताब	-6041
▁माय	-6042
▁क्रेड	-6043
▁पीपीई	-6044
▁वनस्प	-6045
विरुध्द	-6046
▁उपक्रमा	-6047
▁कर्मियों	-6048
▁आवश्यकताओं	-6049
▁अंड	-6050
▁अडथ	-6051
▁रूग्	-6052
▁पर्यावर	-6053
▁E	-6054
▁ईय	-6055
▁बंदरगाह	-6056
▁इस्राएलचा	-6057
▁Mo	-6058
वाचे	-6059
▁चढ़	-6060
▁टुक	-6061
निर्म	-6062
▁डिजा	-6063
▁तारीख	-6064
▁कार्यक्षम	-6065
▁योजनेच्या	-6066
कडी	-6067
श्म	-6068
िनल	-6069
िले	-6070
पीएम	-6071
▁बाई	-6072
▁संच	-6073
स्टीट	-6074
▁म्यान	-6075
▁प्रतियोग	-6076
लीय	-6077
▁सण	-6078
ढ्या	-6079
▁उभर	-6080
▁मोह	-6081
▁ग्लो	-6082
▁यावे	-6083
▁लांबी	-6084
▁मानवता	-6085
▁निवडणूक	-6086
▁सामुदायिक	-6087
40	-6088
कीन	-6089
गोल	-6090
जीन	-6091
ल्‍	-6092
भूमि	-6093
▁फिल	-6094
▁मनोर	-6095
▁अनुसर	-6096
▁गुलाम	-6097
▁फरवरी	-6098
▁व्यास	-6099
▁ट्रांस	-6100
▁इंटरनेट	-6101
▁अपेक्षित	-6102
▁श्रमिकों	-6103
▁विश	-6104
धुनिक	-6105
▁कारा	-6106
▁गिला	-6107
▁याकोब	-6108
▁शहरात	-6109
▁समुद्रा	-6110
▁इलेक्ट्रॉनिक्स	-6111
▁रहना	-6112
▁विसर	-6113
▁दहशतवादा	-6114
बलि	-6115
▁हट	-6116
▁भेद	-6117
▁साद	-6118
▁आपणा	-6119
▁खाना	-6120
▁पाहत	-6121
▁त्वचे	-6122
▁लेंगे	-6123
स्ट्रेल	-6124
्यांमार	-6125
▁समूहों	-6126
▁क्रेडिट	-6127
▁लोकांसाठी	-6128
जय	-6129
▁भव	-6130
▁इंग	-6131
▁खनि	-6132
▁मंग	-6133
▁मनो	-6134
▁राग	-6135
फारिश	-6136
▁कष्ट	-6137
▁गेलो	-6138
▁निघून	-6139
▁बातें	-6140
▁देशांना	-6141
▁विवेकान	-6142
▁सिफारिश	-6143
▁आएगा	-6144
▁सड़कों	-6145
▁आधारशिला	-6146
ॅप	-6147
वीं	-6148
ोसी	-6149
ज्या	-6150
शालोम	-6151
▁पारि	-6152
▁पाहता	-6153
▁रणनीति	-6154
▁साक्षी	-6155
▁संस्करण	-6156
▁दावीदाने	-6157
▁विद्यार्थ्यांना	-6158
कै	-6159
▁इफ्	-6160
्यामीन	-6161
▁विपणन	-6162
▁तापमान	-6163
▁बैंकों	-6164
▁नेतृत्वा	-6165
▁पारदर्शक	-6166
▁रुग्णाला	-6167
▁यात्रियों	-6168
▁करण्याबाबत	-6169
har	-6170
ळाचे	-6171
▁यज्ञ	-6172
▁टाकले	-6173
▁कनेक्शन	-6174
▁उदय	-6175
▁तेच	-6176
▁खूपच	-6177
▁झुंड	-6178
▁बारी	-6179
▁वृद्धी	-6180
▁राज्यांना	-6181
▁यांच्यातील	-6182
फु	-6183
दोम	-6184
▁कच्	-6185
▁विटा	-6186
ल्ल्या	-6187
वृत्ति	-6188
▁ट्रस्ट	-6189
▁पाठिंबा	-6190
गन	-6191
त्रिम	-6192
▁परिचालन	-6193
▁सुरक्षे	-6194
▁देणाऱ्या	-6195
ल्य	-6196
ूने	-6197
्डे	-6198
▁टेक्न	-6199
▁मंडळी	-6200
▁प्रवाश	-6201
▁ठेवण्यासाठी	-6202
रीन	-6203
▁गठन	-6204
▁बीस	-6205
क्तिक	-6206
▁औषधी	-6207
रुस्ती	-6208
▁पेशकश	-6209
▁विधान	-6210
▁सहमति	-6211
▁देशांनी	-6212
▁हितधारकों	-6213
पक	-6214
▁नब	-6215
▁बू	-6216
▁पाहू	-6217
▁सृजन	-6218
▁पारित	-6219
▁हिंदी	-6220
▁V	-6221
gov	-6222
ंजन	-6223
शिप	-6224
आयटी	-6225
▁अधीन	-6226
▁नेते	-6227
▁भेड़	-6228
▁अत्याधुनिक	-6229
मह	-6230
ैम	-6231
लिंग	-6232
▁पीक	-6233
▁मील	-6234
▁निधन	-6235
नेस्सर	-6236
वतंत्र	-6237
▁उठाया	-6238
▁किंमत	-6239
▁येथून	-6240
मिळनाडू	-6241
▁उर्वरक	-6242
▁पड़ोसी	-6243
▁सावधान	-6244
▁अहमदाबाद	-6245
▁म्यानमार	-6246
▁घेतलेल्या	-6247
▁पलिश्तियों	-6248
कला	-6249
पया	-6250
लाब	-6251
▁गौ	-6252
▁पस	-6253
▁तेव	-6254
▁बाळग	-6255
▁संभा	-6256
पाच्या	-6257
▁धर्मी	-6258
▁समजून	-6259
▁अबशालोम	-6260
▁त्यातून	-6261
▁केल्याने	-6262
डीपी	-6263
ोबार	-6264
▁चुक	-6265
▁बहाद	-6266
▁लेना	-6267
स्ट्री	-6268
▁अनुसू	-6269
▁क्रिया	-6270
▁रुपयांच्या	-6271
पर्य	-6272
ब्रा	-6273
ांडा	-6274
▁दिसत	-6275
▁सोबत	-6276
▁सुधारों	-6277
▁रुग्णालय	-6278
▁जाण्यासाठी	-6279
id	-6280
प्ट	-6281
▁45	-6282
▁निगम	-6283
▁पिला	-6284
▁सिनेमा	-6285
▁प्रदूषण	-6286
▁पाठ्यक्रम	-6287
▁विवेकानंद	-6288
▁o	-6289
▁बिक	-6290
▁मुंबईत	-6291
▁म्हणाली	-6292
▁प्रमाणावर	-6293
▁राहणाऱ्या	-6294
नल	-6295
ओगे	-6296
तुम	-6297
स्मा	-6298
▁198	-6299
▁अंक	-6300
▁किट	-6301
कालिक	-6302
ांतून	-6303
▁थोडे	-6304
▁मिनट	-6305
▁उठाने	-6306
▁अभिषेक	-6307
▁भागातील	-6308
▁हस्तक्षेप	-6309
IB	-6310
पार	-6311
राव	-6312
▁कन	-6313
मिता	-6314
▁छाती	-6315
▁टपाल	-6316
▁सुगंध	-6317
▁खरोखरच	-6318
▁म्यांमार	-6319
▁सांख्यिकी	-6320
▁देण्याच्या	-6321
▁रॉ	-6322
▁गरजा	-6323
▁याने	-6324
▁रात्र	-6325
▁खूबसूर	-6326
▁पाठविले	-6327
▁निवृत्ती	-6328
▁राजाच्या	-6329
▁वैज्ञानिकों	-6330
▁दीन	-6331
▁लड़	-6332
▁खत्म	-6333
▁देवता	-6334
▁लकड़ी	-6335
▁ज्याला	-6336
▁समानता	-6337
▁स्त्रिया	-6338
▁हज	-6339
▁ठोस	-6340
▁ईंधन	-6341
▁दर्ज	-6342
ान्वित	-6343
▁उपहार	-6344
प्रमाणेच	-6345
▁अब्राहा	-6346
▁समाविष्ट	-6347
▁माझ्याकडे	-6348
▁रोखण्यासाठी	-6349
ॉम	-6350
ॉर	-6351
ानु	-6352
ुरा	-6353
र्फे	-6354
लाचे	-6355
वाने	-6356
▁आना	-6357
▁MSME	-6358
▁आपसे	-6359
▁करणा	-6360
क्रिया	-6361
▁नेपाळ	-6362
▁वारसा	-6363
▁विद्युती	-6364
▁लाभान्वित	-6365
क्रो	-6366
बिया	-6367
▁प्ल	-6368
▁पडले	-6369
▁बंधन	-6370
▁एजेंस	-6371
▁मानना	-6372
▁तिसऱ्या	-6373
▁कथा	-6374
▁एंटी	-6375
▁चट्ट	-6376
▁जाएँ	-6377
▁जागे	-6378
▁शैली	-6379
▁सांस	-6380
▁रस्ता	-6381
▁हृदया	-6382
▁दक्षता	-6383
▁पाकिस्तान	-6384
▁देशांतर्गत	-6385
▁पॉल	-6386
▁बळी	-6387
▁काना	-6388
▁चलने	-6389
▁चीनी	-6390
▁विकार	-6391
▁सूचित	-6392
▁स्तुति	-6393
▁यापूर्वी	-6394
▁त्याचप्रमाणे	-6395
▁बाढ़	-6396
▁वर्ण	-6397
▁कोयला	-6398
▁डेविड	-6399
▁गरजेचे	-6400
▁पलिष्ट	-6401
सभ	-6402
▁धू	-6403
▁वय	-6404
▁जैन	-6405
▁मसा	-6406
वल्या	-6407
्यातून	-6408
▁बनाता	-6409
▁मुफ्त	-6410
▁देण्या	-6411
▁महीनों	-6412
▁कृत्रिम	-6413
▁दहशतवाद	-6414
फाय	-6415
कारा	-6416
▁रिज	-6417
▁अहाब	-6418
▁सारा	-6419
ंबेडकर	-6420
▁गुप्त	-6421
▁भरोसा	-6422
▁रशिया	-6423
▁जोड़ने	-6424
▁ज्यांनी	-6425
▁योजनेचा	-6426
▁यांच्याशी	-6427
▁आयकर	-6428
▁नाते	-6429
▁आवाज़	-6430
▁मासिक	-6431
▁आराखडा	-6432
▁सुवर्ण	-6433
▁ठेवण्यात	-6434
▁परिषदेचे	-6435
▁केल्यानंतर	-6436
अलग	-6437
▁हाच	-6438
ोलॉजी	-6439
▁कोळसा	-6440
▁पोलीस	-6441
▁बनवले	-6442
▁बोलला	-6443
▁मिळून	-6444
▁वेगळे	-6445
▁इंस्टीट	-6446
▁सिंहासन	-6447
▁प्रसंस्करण	-6448
▁क्षेत्रामध्ये	-6449
ोजे	-6450
▁बंग	-6451
▁दुःख	-6452
▁परदेश	-6453
▁लागली	-6454
▁तरीकों	-6455
▁मिलाकर	-6456
▁म्हणणे	-6457
▁हस्तांतरण	-6458
मंत्र्यांनी	-6459
▁टू	-6460
▁दिवा	-6461
िकीकरण	-6462
▁कार्म	-6463
जातियों	-6464
▁समारंभ	-6465
▁सांगून	-6466
स्ट्रेलिया	-6467
ed	-6468
लग्न	-6469
ासार	-6470
▁कॉलेज	-6471
▁निंदा	-6472
▁निर्माता	-6473
▁न्यायाधीश	-6474
IS	-6475
ळण	-6476
निट	-6477
वानी	-6478
▁आर्	-6479
▁ध्व	-6480
▁नात	-6481
▁भूल	-6482
▁कहना	-6483
▁नीती	-6484
▁बादल	-6485
▁साली	-6486
▁अर्पित	-6487
▁जमिनीवर	-6488
▁शताब्दी	-6489
▁१०	-6490
पीएस	-6491
पोषण	-6492
▁अस्	-6493
▁ऐकू	-6494
▁जर्म	-6495
▁डोळे	-6496
▁मणिप	-6497
द्वारा	-6498
▁दूरसं	-6499
CC	-6500
गाल	-6501
▁अँ	-6502
▁खज	-6503
थ्या	-6504
▁पंख	-6505
▁श्व	-6506
▁गिरा	-6507
▁मंचा	-6508
▁स्तन	-6509
▁अक्षय	-6510
▁वाटेल	-6511
थाम	-6512
त्ते	-6513
▁इन्	-6514
▁मरा	-6515
▁हटा	-6516
▁पुरा	-6517
▁येणे	-6518
▁जोडणी	-6519
▁अंग्रे	-6520
▁ग्लोबल	-6521
▁मुलाकात	-6522
उट	-6523
दिव	-6524
▁फिट	-6525
ांकडे	-6526
▁किरण	-6527
▁गरीबी	-6528
▁दुसरे	-6529
▁पेशेवर	-6530
▁प्रकाशन	-6531
इप	-6532
▁दाहि	-6533
▁प्रि	-6534
ांबाबत	-6535
क्षेत्र	-6536
▁प्रकाशित	-6537
▁यहूदियों	-6538
▁झाल्यानंतर	-6539
▁पंतप्रधानांचे	-6540
मागे	-6541
▁आर्ट	-6542
▁आसाम	-6543
▁टीका	-6544
▁तज्ञ	-6545
▁पाठी	-6546
▁बरेच	-6547
▁माती	-6548
▁वाहतुकी	-6549
सिंग	-6550
▁साडे	-6551
समावेश	-6552
▁मानतो	-6553
▁एलपीजी	-6554
▁विशेषत	-6555
ांपेक्षा	-6556
▁जरूरतों	-6557
▁महत्वाचा	-6558
घ्र	-6559
फिक	-6560
मेर	-6561
▁34	-6562
पुरव	-6563
▁काग	-6564
▁झूठ	-6565
▁घालून	-6566
▁सस्ती	-6567
▁कलाकार	-6568
▁मदतीने	-6569
▁निमंत्र	-6570
परि	-6571
ह्न	-6572
▁65	-6573
प्रस	-6574
▁औषधि	-6575
▁कधीच	-6576
▁मतलब	-6577
▁खासगी	-6578
▁जगाला	-6579
▁देतील	-6580
▁नेपाल	-6581
▁बढ़ते	-6582
▁बेटों	-6583
▁करण्यावर	-6584
▁निवासियों	-6585
▁अर्थसंकल्प	-6586
कीया	-6587
▁दैव	-6588
▁पकड	-6589
▁मधे	-6590
▁दैनिक	-6591
▁यहोशू	-6592
▁उभारणी	-6593
▁कामकाज	-6594
▁इच्छितो	-6595
ion	-6596
▁बाह	-6597
सर्या	-6598
▁ईयोब	-6599
▁आनंदी	-6600
▁घराण्या	-6601
▁याविषयी	-6602
▁उत्पादने	-6603
▁वाढवण्यासाठी	-6604
▁इंट	-6605
▁खां	-6606
▁खराब	-6607
▁चर्च	-6608
▁पड़े	-6609
▁जोडले	-6610
▁हेल्थ	-6611
▁कोणताही	-6612
▁सारख्या	-6613
▁जेणेकरून	-6614
▁प्रतिनिधित्व	-6615
▁हथ	-6616
▁लसी	-6617
▁सोप	-6618
▁आधुन	-6619
▁टाका	-6620
▁तनाव	-6621
▁मालम	-6622
▁फाउंड	-6623
▁सुभाष	-6624
▁हिमालय	-6625
▁इस्राएली	-6626
▁विकासाला	-6627
▁संकल्पना	-6628
▁यहूदाच्या	-6629
▁प्रतिनिधिमंड	-6630
17	-6631
गां	-6632
्राव	-6633
▁गेह	-6634
▁मूळ	-6635
▁अकाद	-6636
▁रामा	-6637
▁लंबी	-6638
▁स्थला	-6639
▁2020-21	-6640
▁गणराज्य	-6641
▁अध्यादेश	-6642
FF	-6643
ोन्	-6644
ज़ार	-6645
नाने	-6646
साइट	-6647
▁उड्डा	-6648
▁जोड़ा	-6649
▁पॅकेज	-6650
▁बहुता	-6651
▁जीवनात	-6652
▁मोशेने	-6653
▁विभागाच्या	-6654
▁आत्मविश्वास	-6655
▁प्रतिनिधियों	-6656
कोट	-6657
स्‍	-6658
ूपी	-6659
▁(2	-6660
▁अम्	-6661
▁निया	-6662
▁यादी	-6663
▁वापरा	-6664
▁परेशान	-6665
▁विश्ले	-6666
▁पीढ़ियों	-6667
▁केल्याबद्दल	-6668
कता	-6669
कावर	-6670
चानक	-6671
▁फ्ल	-6672
▁खर्चा	-6673
▁तेथून	-6674
▁देशाचे	-6675
▁मोशेला	-6676
▁समर्पण	-6677
▁निर्णया	-6678
▁निर्मला	-6679
▁मार्गावर	-6680
▁परिस्थितीत	-6681
ज्य	-6682
▁55	-6683
काचा	-6684
▁194	-6685
▁क्षण	-6686
▁गावा	-6687
्यांशी	-6688
▁अचानक	-6689
▁गोत्र	-6690
▁नौदला	-6691
▁परमाण	-6692
▁सीमित	-6693
▁इमारती	-6694
▁याह्वेह	-6695
▁स्वयंसे	-6696
▁यासंदर्भात	-6697
दुखी	-6698
▁नाक	-6699
▁बोली	-6700
▁सपने	-6701
▁इंजीन	-6702
▁घंटों	-6703
▁जरूरी	-6704
्यपूर्ण	-6705
▁विकल्प	-6706
▁प्रोटोक	-6707
▁महत्वाकां	-6708
एनए	-6709
▁तिक	-6710
▁शाप	-6711
हाय्य	-6712
▁अखंड	-6713
▁पट्ट	-6714
स्थानी	-6715
▁संतोष	-6716
ांबरोबर	-6717
▁संलग्न	-6718
▁उद्देशाने	-6719
▁परराष्ट्र	-6720
▁प्रदेशातील	-6721
़ा	-6722
लिश	-6723
डीआर	-6724
दाता	-6725
▁यहोशा	-6726
▁तक्रार	-6727
▁निवारण	-6728
शास्त्रा	-6729
▁मान्यवर	-6730
▁देण्याचा	-6731
▁प्रकारची	-6732
▁सर्वसमावेश	-6733
▁मंत्र्यांनी	-6734
RA	-6735
▁33	-6736
▁Sh	-6737
▁आकर	-6738
▁धान	-6739
▁पंच	-6740
▁काले	-6741
▁वाढवि	-6742
▁ह्याला	-6743
▁कोणतेही	-6744
▁पृथ्वीवर	-6745
▁संख्येने	-6746
▁त्याप्रमाणे	-6747
थॉन	-6748
र्भ	-6749
▁शही	-6750
▁कोणतीही	-6751
डन	-6752
रण्य	-6753
सभेत	-6754
▁हाय	-6755
द्वार	-6756
▁इतना	-6757
▁किले	-6758
▁बालक	-6759
▁ठेवली	-6760
▁सांगू	-6761
▁डिजाइन	-6762
▁रोमांच	-6763
▁व्हावी	-6764
▁सरकारला	-6765
▁झाल्याचे	-6766
▁फाउंडेशन	-6767
▁मार्गाने	-6768
▁चू	-6769
▁सॉ	-6770
चालक	-6771
▁अके	-6772
▁इंद	-6773
▁फें	-6774
▁महल	-6775
▁मोक	-6776
▁वेश	-6777
परेशन	-6778
▁1000	-6779
▁मासे	-6780
▁गवाही	-6781
▁स्वप्	-6782
▁जुन्या	-6783
▁रहेंगे	-6784
▁लिहिले	-6785
▁पाण्यात	-6786
▁होण्याचा	-6787
▁संवेदनशील	-6788
▁ह्यांच्या	-6789
वीस	-6790
▁इको	-6791
▁जाल	-6792
▁अनंत	-6793
▁गुना	-6794
▁परमाणु	-6795
▁संग्रहालया	-6796
ल्फ	-6797
एनएस	-6798
▁गेट	-6799
स्तीत	-6800
▁व्ही	-6801
▁इतक्या	-6802
▁उपकरणे	-6803
▁झालेली	-6804
▁लेवियों	-6805
▁सौभाग्य	-6806
▁मंत्रियों	-6807
यह	-6808
करा	-6809
रीच	-6810
▁42	-6811
▁एला	-6812
▁क्व	-6813
नेशिया	-6814
▁वाढेल	-6815
▁अवस्था	-6816
▁उपासना	-6817
▁देवदूत	-6818
▁परन्तु	-6819
ांपर्यंत	-6820
▁इंस्टीट्यूट	-6821
ँस	-6822
रोन	-6823
▁38	-6824
डेकर	-6825
▁झाड	-6826
▁युक्त	-6827
▁हजारो	-6828
▁झालेला	-6829
▁ह्याचा	-6830
▁जनतेच्या	-6831
कून	-6832
बोन	-6833
▁नज	-6834
▁नरे	-6835
▁मिश	-6836
▁रिट	-6837
▁हंगा	-6838
णामुळे	-6839
स्थापित	-6840
▁शरीरात	-6841
▁सेवकों	-6842
▁द्यायला	-6843
▁त्यापैकी	-6844
आईटी	-6845
▁सद्	-6846
▁बेहद	-6847
▁रक्ता	-6848
▁करायची	-6849
▁पुढाकार	-6850
धना	-6851
▁जू	-6852
▁गलत	-6853
▁सवल	-6854
▁बंधु	-6855
▁मिलती	-6856
▁जगभरात	-6857
▁अत्यधिक	-6858
▁प्रथाओं	-6859
▁प्रोटोकॉल	-6860
ऐवजी	-6861
▁अमर	-6862
▁झालो	-6863
लपमेंट	-6864
▁गाड्या	-6865
▁उत्पादकता	-6866
▁पूर्वोत्तर	-6867
▁48	-6868
▁जळ	-6869
द्दा	-6870
पिंग	-6871
▁कशी	-6872
▁टूट	-6873
▁दाँ	-6874
▁हमी	-6875
ासंगिक	-6876
▁पूंजी	-6877
▁पाठवले	-6878
▁प्रचंड	-6879
▁मणिपुर	-6880
▁ज्यामध्ये	-6881
▁प्रासंगिक	-6882
▁मॅ	-6883
ृत्य	-6884
▁चयन	-6885
▁मीट	-6886
स्परिक	-6887
▁देवाण	-6888
▁मागील	-6889
▁नियामक	-6890
▁पर्याय	-6891
▁विटामिन	-6892
▁प्रतियोगिता	-6893
ोत	-6894
▁सुस	-6895
▁हरी	-6896
योग्य	-6897
▁मरीज	-6898
▁मुळे	-6899
▁सिखा	-6900
▁दिमाग	-6901
▁प्राण्या	-6902
▁राज्यातील	-6903
रह	-6904
▁s	-6905
निक	-6906
हीन	-6907
भरणी	-6908
सीएम	-6909
▁मुँ	-6910
▁कप्त	-6911
▁ज्ये	-6912
▁पीछा	-6913
▁शाखा	-6914
▁उपदेश	-6915
▁मिनिट	-6916
▁मिळतो	-6917
▁यात्री	-6918
▁कंपन्या	-6919
▁समृद्धी	-6920
▁आयुष्यात	-6921
▁जिम्मेदार	-6922
▁पारस्परिक	-6923
▁प्रदर्शनी	-6924
ईओ	-6925
ॉड	-6926
▁गंग	-6927
▁पचा	-6928
▁हिम	-6929
▁आजादी	-6930
▁मस्ति	-6931
▁स्क्री	-6932
▁पायाभरणी	-6933
तू	-6934
उंट	-6935
▁अट	-6936
▁शं	-6937
शैली	-6938
ांकन	-6939
बाहेर	-6940
▁कठिन	-6941
▁बजाय	-6942
▁मोफत	-6943
▁सुरुवा	-6944
▁श्रेष्ठ	-6945
▁बीमारियों	-6946
▁तंत्रज्ञानाच्या	-6947
रेट	-6948
िमी	-6949
नियों	-6950
साहेब	-6951
▁कराल	-6952
▁पसंद	-6953
▁रद्द	-6954
▁अनुमो	-6955
▁बचाने	-6956
▁निकाला	-6957
▁अवलंबून	-6958
▁सुविधाएं	-6959
▁सर्वसमावेशक	-6960
ऊस	-6961
ंचन	-6962
ज्जी	-6963
वेशन	-6964
▁थोड	-6965
▁इतका	-6966
▁इतनी	-6967
▁सुनो	-6968
▁तीसरे	-6969
▁अजूनही	-6970
▁त्याबद्दल	-6971
IM	-6972
ai	-6973
ल्ल	-6974
सीए	-6975
स्टि	-6976
्यूर	-6977
▁बेड	-6978
▁बोस	-6979
▁वास	-6980
िकाओं	-6981
िलियन	-6982
▁अपील	-6983
▁खनिज	-6984
▁भीती	-6985
क्ताओं	-6986
▁ढांचा	-6987
▁निकाय	-6988
▁पहिली	-6989
▁अनुरूप	-6990
▁केलेला	-6991
▁अपवित्र	-6992
▁औपचारिक	-6993
▁पारदर्शी	-6994
▁सिंगापुर	-6995
▁तामिळनाडू	-6996
▁प्रशिक्षित	-6997
ॅम	-6998
▁देर	-6999
▁बोझ	-7000
▁2030	-7001
▁ऐकून	-7002
▁थोड़	-7003
▁प्रेस	-7004
▁ज्येष्ठ	-7005
▁रुपयांचे	-7006
दूक	-7007
लेक	-7008
ियस	-7009
▁घन	-7010
▁भले	-7011
▁हॉट	-7012
▁खुला	-7013
▁पोषक	-7014
▁सफाई	-7015
▁होटल	-7016
▁रिसर्च	-7017
▁पहाड़ों	-7018
्टर	-7019
बिंब	-7020
सरों	-7021
ातडी	-7022
▁आकड	-7023
▁आणा	-7024
▁कहो	-7025
▁खाल	-7026
▁जाय	-7027
▁यार्	-7028
▁अग्नी	-7029
▁कामों	-7030
▁लावले	-7031
▁शासित	-7032
▁प्रोजे	-7033
▁राहतात	-7034
नन	-7035
ुप	-7036
▁उर	-7037
▁सख	-7038
प्रे	-7039
▁मले	-7040
▁लष्	-7041
▁खोली	-7042
▁त्यो	-7043
▁वाढी	-7044
▁असणार	-7045
▁कहानी	-7046
▁भंडारण	-7047
▁ज्याच्या	-7048
▁माझ्यासाठी	-7049
बली	-7050
मेल	-7051
▁अक्	-7052
▁ओदि	-7053
▁छूट	-7054
▁दंड	-7055
▁दरी	-7056
▁दळण	-7057
ांजली	-7058
▁हाउस	-7059
▁यातून	-7060
▁उंचीवर	-7061
▁टक्क्यां	-7062
-17	-7063
ण्य	-7064
दीप	-7065
यती	-7066
िकरण	-7067
चार्य	-7068
▁ऊंचा	-7069
▁अड्डे	-7070
▁निरोप	-7071
▁शिविर	-7072
▁निर्भर	-7073
▁त्योहार	-7074
पत	-7075
साव	-7076
▁टेक	-7077
▁तशी	-7078
▁कीमत	-7079
▁मेगा	-7080
▁अभिने	-7081
▁टर्मिनल	-7082
▁लाभदायक	-7083
▁दुर्घटना	-7084
लेख	-7085
▁कू	-7086
▁130	-7087
▁पर्	-7088
▁गवर्	-7089
▁सफेद	-7090
▁आएंगे	-7091
▁सर्दी	-7092
▁आयोगाने	-7093
▁जावडेकर	-7094
▁श्रद्धा	-7095
▁संशोधित	-7096
▁सैनिकों	-7097
▁प्रतिबिंब	-7098
el	-7099
टों	-7100
▁मेज	-7101
तल्या	-7102
ोग्रा	-7103
▁अफगान	-7104
▁साबित	-7105
▁देशाचा	-7106
▁राजदूत	-7107
▁विद्युत	-7108
▁सर्वांचे	-7109
चिक	-7110
याग	-7111
▁१५	-7112
काने	-7113
पाशी	-7114
▁पाए	-7115
▁सब्	-7116
▁आजही	-7117
▁सीबी	-7118
▁आभासी	-7119
▁जिसकी	-7120
▁बढ़कर	-7121
▁योहान	-7122
▁शर्मा	-7123
▁डब्ल्यू	-7124
▁एजेंसियों	-7125
▁विशेषज्ञों	-7126
▁ऑस्ट्रेलिया	-7127
ोदय	-7128
▁th	-7129
▁कृत	-7130
▁तसा	-7131
▁इसहा	-7132
▁गरिब	-7133
▁हक्क	-7134
▁जंगली	-7135
▁वृत्त	-7136
▁शेवटी	-7137
▁साक्ष	-7138
रि	-7139
पाई	-7140
▁उग	-7141
ार्मा	-7142
ॉर्डन	-7143
▁खेळा	-7144
▁पडला	-7145
पुरवठा	-7146
▁आधारे	-7147
▁रुपयांप	-7148
▁अधिकाधिक	-7149
▁निरीक्षण	-7150
▁प्रतिनिधिमंडल	-7151
▁मंत्रिमंडळाच्या	-7152
वाचा	-7153
▁साव	-7154
▁कुणी	-7155
▁घडले	-7156
▁मिट्टी	-7157
▁यार्देन	-7158
छा	-7159
तीन	-7160
भाई	-7161
▁वग	-7162
▁300	-7163
▁पति	-7164
भोवती	-7165
▁फैसला	-7166
▁दिखाया	-7167
▁प्रमाणे	-7168
▁कुठल्याही	-7169
▁प्रशासकीय	-7170
am	-7171
धारा	-7172
ार्क	-7173
▁अदा	-7174
▁एकल	-7175
▁तम्	-7176
▁रेख	-7177
न्यास	-7178
▁अनुभ	-7179
▁इटली	-7180
▁जिंक	-7181
▁लिंक	-7182
▁साहस	-7183
▁काढले	-7184
▁पावला	-7185
▁वाटले	-7186
▁पुरानी	-7187
▁सन्दूक	-7188
▁देवताओं	-7189
▁सिंगापूर	-7190
▁IC	-7191
▁नॉ	-7192
▁इक्	-7193
▁उपज	-7194
▁सरळ	-7195
▁ताकद	-7196
▁मशीन	-7197
▁इफ्फी	-7198
▁मानते	-7199
▁दिवसीय	-7200
▁जास्तीत	-7201
▁विभागाचे	-7202
▁विभागाने	-7203
▁पहिल्यांदा	-7204
हद	-7205
गाण	-7206
ताब	-7207
संप	-7208
जन्य	-7209
डीसी	-7210
यांना	-7211
ार्थी	-7212
▁खेती	-7213
▁नियु	-7214
माच्या	-7215
▁न्यून	-7216
▁कार्बन	-7217
▁प्रौद्योगिक	-7218
जुट	-7219
▁:-	-7220
्यूब	-7221
▁शरण	-7222
देशीर	-7223
ईपर्यंत	-7224
▁जाऊंगा	-7225
▁केंद्रे	-7226
▁लोकसंख्य	-7227
▁परियोजनाएं	-7228
▁सहकार्याने	-7229
डीत	-7230
▁फ़	-7231
भवती	-7232
ेतील	-7233
▁कों	-7234
▁वैय	-7235
▁आलेला	-7236
▁जेटली	-7237
▁जॉर्डन	-7238
▁नव्हती	-7239
▁महाराज	-7240
▁व्हायला	-7241
▁विश्लेषण	-7242
कत	-7243
लाग	-7244
▁सगळ	-7245
न्दित	-7246
ारावर	-7247
▁मुलाला	-7248
▁कार्मिक	-7249
▁डॉक्टरों	-7250
▁पुनरुच्चार	-7251
ic	-7252
्येक	-7253
▁उलट	-7254
▁गुड	-7255
्यांत	-7256
▁इजरा	-7257
▁चलता	-7258
▁स्टा	-7259
▁स्ना	-7260
दराबाद	-7261
ेंव्हा	-7262
▁छुड़ा	-7263
▁राहात	-7264
▁जलमार्ग	-7265
▁तक्रारी	-7266
▁समावेशी	-7267
मंत्रियों	-7268
▁एकात्मिक	-7269
▁तिरस्कार	-7270
▁मदतीसाठी	-7271
▁रेखांकित	-7272
भागा	-7273
▁नील	-7274
▁हीच	-7275
त्त्व	-7276
▁वतीने	-7277
▁सर्वि	-7278
▁एनसीसी	-7279
▁खाद्या	-7280
▁करतांना	-7281
▁दर्शनीय	-7282
▁वाणिज्यिक	-7283
▁रोजगाराच्या	-7284
इज	-7285
▁नफ	-7286
▁कॉल	-7287
▁खबर	-7288
▁तौर	-7289
ल्‍ली	-7290
▁जाति	-7291
▁एकजुट	-7292
▁पहलों	-7293
स्वतंत्र	-7294
▁कित्येक	-7295
▁पश्चिमी	-7296
▁यिर्मया	-7297
ल्याबद्दल	-7298
▁इस्राएला	-7299
▁वर्षांपूर्वी	-7300
.”	-7301
र्तन	-7302
▁कलम	-7303
▁धरती	-7304
▁रंगा	-7305
▁शासक	-7306
ेमध्ये	-7307
▁बच्चा	-7308
▁दूसरों	-7309
▁सर्वजण	-7310
▁होण्या	-7311
▁आनन्दित	-7312
▁माणसाने	-7313
▁महिलांना	-7314
▁मुख्यालय	-7315
▁प्रतिज्ञा	-7316
▁लोकांमध्ये	-7317
मय	-7318
बाल	-7319
प्पट	-7320
▁1.5	-7321
निष्ठ	-7322
▁देकर	-7323
▁मानस	-7324
ांमधून	-7325
▁फायदे	-7326
▁अद्यया	-7327
▁साहित्य	-7328
▁नरेन्द्र	-7329
▁संरक्षित	-7330
▁करारामुळे	-7331
▁त्यामध्ये	-7332
▁इंडोनेशिया	-7333
▁अधिकाऱ्यांना	-7334
वाट	-7335
▁तिथ	-7336
▁बसून	-7337
▁बायो	-7338
▁वक्त	-7339
▁अभिनव	-7340
▁कर्जा	-7341
▁गिलाद	-7342
▁बिजनेस	-7343
▁दिल्‍ली	-7344
ँची	-7345
एमएस	-7346
ल्लू	-7347
▁Aay	-7348
▁हान	-7349
▁लॉजि	-7350
तांच्या	-7351
▁अंदाजे	-7352
▁दक्षिणे	-7353
▁निमित्त	-7354
▁विश्राम	-7355
▁दूरसंचार	-7356
▁अभ्यासक्रम	-7357
▁प्रयोगशालाओं	-7358
▁राज्यांमध्ये	-7359
कुल	-7360
लोड	-7361
स्सा	-7362
▁गिल	-7363
▁बेच	-7364
▁हून	-7365
▁जाँच	-7366
▁जाकर	-7367
▁नींद	-7368
▁फोरम	-7369
▁बंदी	-7370
▁योगा	-7371
पक्षीय	-7372
▁ओळखले	-7373
▁पोलिस	-7374
▁संघटना	-7375
▁सीरिया	-7376
▁मूल्यों	-7377
▁संतुलित	-7378
▁लक्ष्यों	-7379
वह	-7380
ोथ	-7381
ोगु	-7382
▁थक	-7383
ूल्य	-7384
▁इनो	-7385
▁जेल	-7386
▁टाळ	-7387
विरोध	-7388
▁तथ्य	-7389
▁दोगु	-7390
▁विकत	-7391
▁स्ने	-7392
▁हिज्	-7393
▁Aayog	-7394
▁महानि	-7395
▁वाटतो	-7396
वलेल्या	-7397
▁सिंचाई	-7398
▁ह्याचे	-7399
▁ट्रिलियन	-7400
व्यतिरिक्त	-7401
▁अधिकाऱ्यांनी	-7402
▁त्यांच्यासाठी	-7403
ंटा	-7404
▁रड	-7405
यत्त	-7406
▁गार	-7407
▁जहा	-7408
▁नां	-7409
वायरस	-7410
▁असणे	-7411
▁इतने	-7412
▁मुँह	-7413
▁मेला	-7414
▁असावे	-7415
▁कवरेज	-7416
▁विनाश	-7417
▁शिल्प	-7418
▁सीतार	-7419
करणासाठी	-7420
▁गर्भवती	-7421
▁संक्रमित	-7422
▁आधुनिकीकरण	-7423
ईडी	-7424
क्य	-7425
▁उक	-7426
दृष्ट	-7427
▁NITI	-7428
▁आरोप	-7429
▁डोके	-7430
▁तात्	-7431
▁पोला	-7432
साच्या	-7433
▁उड़ान	-7434
▁गार्ड	-7435
▁हातात	-7436
▁देवदार	-7437
्यामध्ये	-7438
▁परिश्रम	-7439
▁उपभोक्ता	-7440
▁न्यायालय	-7441
चले	-7442
दाम	-7443
ष्ठा	-7444
▁जीभ	-7445
▁लाए	-7446
▁अभया	-7447
▁वैसे	-7448
▁अहवाल	-7449
▁आफ्रिक	-7450
▁पूर्वे	-7451
▁वैयक्तिक	-7452
▁स्वायत्त	-7453
▁इलेक्ट्रिक	-7454
▁महत्त्वाचे	-7455
णीव	-7456
▁झां	-7457
▁शतक	-7458
▁सरल	-7459
ऱ्यात	-7460
▁चलते	-7461
▁चिंत	-7462
▁राजे	-7463
▁उन्नत	-7464
▁काउंस	-7465
▁राजस्व	-7466
▁सेवाएं	-7467
▁सामायिक	-7468
▁दृष्टीकोन	-7469
खार	-7470
टेक	-7471
वधी	-7472
▁हळ	-7473
▁चोट	-7474
▁नोट	-7475
ाराला	-7476
हाच्या	-7477
▁टेस्ट	-7478
▁पेत्र	-7479
▁अधिकृत	-7480
▁नियोजन	-7481
▁लोकांशी	-7482
▁अनुसूचित	-7483
▁व्यक्तीला	-7484
▁निर्माताओं	-7485
बीर	-7486
ष्प	-7487
▁टॉ	-7488
बाजू	-7489
राची	-7490
▁अडक	-7491
▁घूम	-7492
▁बसा	-7493
▁सुल	-7494
▁अद्व	-7495
▁ठेवू	-7496
▁मोआब	-7497
▁उदयोग	-7498
▁कराने	-7499
▁दळणवळ	-7500
▁अधिकतम	-7501
▁जहाजों	-7502
▁बेटियों	-7503
▁लोकांवर	-7504
▁दिग्दर्शक	-7505
▁प्रोजेक्ट	-7506
FFI	-7507
दीय	-7508
▁छू	-7509
काळात	-7510
▁बिंद	-7511
आर्थिक	-7512
मार्फत	-7513
▁कठिना	-7514
▁शास्त	-7515
▁दुप्पट	-7516
▁नियमों	-7517
▁प्यारे	-7518
▁बहादुर	-7519
▁महामंड	-7520
▁क्रांति	-7521
▁याजकाने	-7522
स्ट्रक्चर	-7523
▁उद्यमियों	-7524
मंद	-7525
▁मक	-7526
प्ति	-7527
ळाची	-7528
ारीत	-7529
िस्ट	-7530
▁करण	-7531
▁उंचा	-7532
▁चिह्न	-7533
▁मालिश	-7534
ांबद्दल	-7535
▁अम्मोन	-7536
▁बिक्री	-7537
▁इकाइयों	-7538
▁व्यासपी	-7539
▁हैदराबाद	-7540
60	-7541
▁टि	-7542
▁परम	-7543
▁रान	-7544
नातील	-7545
▁दाखल	-7546
▁होनी	-7547
ांतरित	-7548
▁अफगाण	-7549
▁चार्ज	-7550
▁थोड़ा	-7551
▁बातमी	-7552
▁भाग्य	-7553
▁स्टॉक	-7554
▁मिळवून	-7555
▁व्हावा	-7556
▁लोकसंख्या	-7557
्रास्ट्रक्चर	-7558
▁पुढीलप्रमाणे	-7559
आईसी	-7560
वादन	-7561
▁रत्	-7562
▁पुरी	-7563
▁पूछा	-7564
▁कृपया	-7565
▁चिन्ह	-7566
▁त्रिप	-7567
▁अहवाला	-7568
▁कमतरता	-7569
▁नक्कीच	-7570
▁माणसांना	-7571
▁त्यांच्याशी	-7572
CO	-7573
ंतू	-7574
▁चै	-7575
▁चैन	-7576
▁जाळ	-7577
▁फळे	-7578
▁बाँ	-7579
▁लिख	-7580
▁पूरक	-7581
▁निभाई	-7582
▁समापन	-7583
▁अकादमी	-7584
▁फ्रांस	-7585
▁लागतात	-7586
▁संपन्न	-7587
▁दुष्टों	-7588
▁न्यूनतम	-7589
▁नियमशास्त्रा	-7590
!";	-7591
वतात	-7592
▁शेष	-7593
ेशनों	-7594
▁पचास	-7595
▁तत्पर	-7596
▁द्याय	-7597
▁पुरात	-7598
▁युवकांना	-7599
धर	-7600
लोक	-7601
▁अरे	-7602
▁किश	-7603
▁टोक	-7604
▁पीठ	-7605
▁वसा	-7606
▁सुच	-7607
▁आपसी	-7608
▁रागा	-7609
ार्दिक	-7610
▁आत्ता	-7611
▁छावणी	-7612
▁माहित	-7613
रेन	-7614
▁वॉ	-7615
एनजी	-7616
ताला	-7617
▁कोप	-7618
▁सुट	-7619
▁आश्र	-7620
▁पांढ	-7621
▁पेशी	-7622
▁राजन	-7623
▁धैर्य	-7624
▁फिरौन	-7625
▁साइबर	-7626
▁इजरायल	-7627
▁करणारी	-7628
▁स्थानक	-7629
▁हार्दिक	-7630
▁अल्पसंख्य	-7631
AI	-7632
कुट	-7633
▁49	-7634
▁पौल	-7635
गावॅट	-7636
▁सीईओ	-7637
त्यक्ष	-7638
दाताओं	-7639
ोग्राम	-7640
▁उजाड़	-7641
▁देखता	-7642
▁संकटे	-7643
▁सुटका	-7644
▁आंतरिक	-7645
▁किंमती	-7646
▁ज्ञाना	-7647
▁सरकारचा	-7648
दोष	-7649
भरा	-7650
महा	-7651
वते	-7652
सीआर	-7653
▁नबु	-7654
▁वसू	-7655
दृश्य	-7656
धारणा	-7657
▁असला	-7658
▁असाल	-7659
▁जाया	-7660
▁ग्रीन	-7661
▁नगरात	-7662
▁वर्गा	-7663
▁हत्या	-7664
▁उद्योगों	-7665
▁त्याशिवाय	-7666
▁यरुशलेममध्ये	-7667
सभे	-7668
पीपी	-7669
सनीय	-7670
▁एकच	-7671
▁रहो	-7672
▁तिचे	-7673
▁बसला	-7674
▁कदमों	-7675
▁दशकों	-7676
▁नॅशनल	-7677
▁ऑपरेशन	-7678
▁तलवारी	-7679
▁पहुंचा	-7680
▁यापैकी	-7681
▁लोकार्	-7682
▁स्वर्ण	-7683
▁परिस्थित	-7684
▁प्रारंभिक	-7685
▁लखन	-7686
भगिनी	-7687
ल्यास	-7688
▁खुली	-7689
▁पळून	-7690
▁सक्ष	-7691
▁पेयजल	-7692
▁बायको	-7693
▁फ्रान्स	-7694
▁सिक्किम	-7695
▁कॉन्फरन्सिंग	-7696
ैप	-7697
रीज	-7698
वीर	-7699
सिड	-7700
ळाला	-7701
वाची	-7702
▁यशा	-7703
▁परकीय	-7704
▁बऱ्या	-7705
▁आरक्षण	-7706
▁दिलेले	-7707
▁देताना	-7708
▁परिभाष	-7709
▁राहावे	-7710
▁लक्षणे	-7711
▁वाहनों	-7712
▁अभियाना	-7713
▁जीवनशैली	-7714
लर	-7715
विल	-7716
सरी	-7717
▁गहरी	-7718
▁धीरे	-7719
▁परिक	-7720
▁लग्न	-7721
▁जीवंत	-7722
▁विवाद	-7723
▁शिवाय	-7724
▁सीतारमण	-7725
▁मर्यादित	-7726
▁स्टेशनों	-7727
ंसे	-7728
टीन	-7729
ढ़ी	-7730
▁पल	-7731
ांती	-7732
▁400	-7733
▁अँड	-7734
▁टूर	-7735
▁मीच	-7736
▁शिर	-7737
▁आणून	-7738
▁संपत्ति	-7739
▁अधिसूचना	-7740
▁संस्थागत	-7741
इंड	-7742
टीय	-7743
वाडा	-7744
▁and	-7745
▁इंत	-7746
▁पूल	-7747
▁ब्रह	-7748
▁दर्शा	-7749
▁म्हणत	-7750
▁साखळी	-7751
ांविषयी	-7752
▁प्रीति	-7753
▁चिह्नित	-7754
▁त्यातील	-7755
▁अद्वितीय	-7756
▁घेण्याची	-7757
▁न्यायालया	-7758
▁म्हणाल्या	-7759
▁प्रौद्योगिकियों	-7760
75	-7761
▁सॅ	-7762
िप्त	-7763
▁एअर	-7764
▁पाट	-7765
▁शिख	-7766
द्दाख	-7767
▁घोड़	-7768
▁तिचा	-7769
वाहाटी	-7770
सायनिक	-7771
▁अक्सर	-7772
▁वाढते	-7773
▁सेक्टर	-7774
▁उपस्थिती	-7775
▁परिपूर्ण	-7776
▁स्वर्गदूत	-7777
ोरा	-7778
▁कफ	-7779
▁125	-7780
▁प्रज	-7781
▁फारो	-7782
▁मवाब	-7783
व्यापी	-7784
▁कपड़ा	-7785
प्रसंगी	-7786
▁सक्षमी	-7787
▁नमस्कार	-7788
▁सुधारित	-7789
▁ह्यामुळे	-7790
▁क्षेत्रांमध्ये	-7791
न्ट	-7792
ूकी	-7793
▁डू	-7794
▁१२	-7795
काची	-7796
ष्टिक	-7797
▁कोठे	-7798
▁मुदत	-7799
▁यूपी	-7800
▁भाकरी	-7801
▁मुलगी	-7802
▁सायबर	-7803
▁नेताजी	-7804
▁प्रक्षे	-7805
▁विशेषता	-7806
▁श्रीमंत	-7807
▁देशासाठी	-7808
▁अप्रत्यक्ष	-7809
▁खड	-7810
▁चंद	-7811
▁चाँ	-7812
ध्वनी	-7813
यांवर	-7814
ोरेशन	-7815
▁उतार	-7816
▁दरात	-7817
▁जुड़ी	-7818
▁ईशान्ये	-7819
▁दुरुस्ती	-7820
▁विश्वासा	-7821
▁लस	-7822
धारक	-7823
वाहत	-7824
शिता	-7825
ेतून	-7826
▁पाई	-7827
▁असेच	-7828
▁ईस्ट	-7829
▁नौदल	-7830
▁कक्षा	-7831
▁संसदे	-7832
दृष्ट्या	-7833
▁वाढत्या	-7834
▁रुपयांचा	-7835
▁प्लास्टिक	-7836
▁महासंचालक	-7837
▁संध्याकाळी	-7838
वाया	-7839
स्वा	-7840
ूनों	-7841
▁वां	-7842
मुवेल	-7843
▁अर्ध	-7844
▁नोकर	-7845
▁लगती	-7846
▁युध्द	-7847
▁ज्याने	-7848
▁मेट्रिक	-7849
▁यूरोपीय	-7850
▁अभयारण्य	-7851
▁मस्तिष्क	-7852
▁लोकार्पण	-7853
▁रुग्णांची	-7854
▁c	-7855
तेत	-7856
निर	-7857
आयसी	-7858
कृती	-7859
र्दी	-7860
स्कर	-7861
▁लाखो	-7862
▁अग्नि	-7863
▁ठेवणे	-7864
▁एप्रैम	-7865
▁दलाच्या	-7866
▁त्याच्याकडे	-7867
िमा	-7868
वर्ध	-7869
विंद	-7870
▁गाढ	-7871
▁मद्	-7872
▁लागणार	-7873
निर्मिती	-7874
▁विकलांग	-7875
▁निमंत्रण	-7876
गीय	-7877
म्स	-7878
टीने	-7879
पूजन	-7880
▁कुळ	-7881
▁तोच	-7882
गोलिक	-7883
▁तोमर	-7884
▁बुरा	-7885
▁मण्ड	-7886
▁सरोव	-7887
▁हरित	-7888
▁आकडेव	-7889
▁लावून	-7890
▁व्यभि	-7891
▁ह्याने	-7892
ांद्वारे	-7893
▁भौगोलिक	-7894
▁असल्याची	-7895
कभी	-7896
▁हॅ	-7897
यानक	-7898
▁खरा	-7899
▁थंड	-7900
▁फेस	-7901
वश्यक	-7902
▁अरुण	-7903
▁परता	-7904
▁शहरे	-7905
▁बर्तन	-7906
▁आयुक्त	-7907
▁डोंगरा	-7908
▁मानदंड	-7909
▁मूलभूत	-7910
▁रीतीने	-7911
▁रोकथाम	-7912
▁विषयों	-7913
▁संसदीय	-7914
▁अभिवादन	-7915
▁महिन्याच्या	-7916
▁नेतृत्वाखाली	-7917
ोदर	-7918
▁फूल	-7919
▁सफर	-7920
ीविका	-7921
▁तरतु	-7922
▁ग्रहण	-7923
▁बनाते	-7924
▁भूतान	-7925
▁राहिली	-7926
▁आजीविका	-7927
▁दोहराया	-7928
▁वंशातील	-7929
▁स्वतःला	-7930
▁स्थलांतर	-7931
▁पारिस्थित	-7932
आयआर	-7933
▁कंध	-7934
▁शहाण	-7935
आधारित	-7936
ांनाही	-7937
▁तपशील	-7938
▁बाहरी	-7939
▁योसेफ	-7940
▁वसूली	-7941
▁प्रभार	-7942
▁विरोधी	-7943
▁शमुवेल	-7944
▁पत्थरों	-7945
▁अधिसूचित	-7946
▁भारतासाठी	-7947
▁अशाप्रकारे	-7948
▁विद्युतीकरण	-7949
ंटर	-7950
बिल	-7951
▁PIB	-7952
▁चिर	-7953
▁कनान	-7954
▁केलं	-7955
▁क्ला	-7956
▁गवाह	-7957
▁जोशी	-7958
▁सीमे	-7959
▁सूरज	-7960
▁आँखें	-7961
▁जैविक	-7962
▁नाकार	-7963
▁लंबाई	-7964
▁संयंत्र	-7965
▁स्वरूपात	-7966
▁भारतामध्ये	-7967
न्ड	-7968
लाल	-7969
द्दी	-7970
▁गाड	-7971
ार्पण	-7972
▁दोषी	-7973
▁लेता	-7974
▁भूटान	-7975
▁याआधी	-7976
▁विधवा	-7977
▁संघटन	-7978
▁तत्काल	-7979
▁जानवरों	-7980
▁रेल्वेने	-7981
▁कर्मचाऱ्यां	-7982
▁मंत्रालयाचे	-7983
▁राज्यांच्या	-7984
▁महत्वाकांक्षी	-7985
il	-7986
▁t	-7987
डीआई	-7988
तेवर	-7989
्रेस	-7990
▁आंक	-7991
▁बहन	-7992
▁सेल	-7993
शक्ति	-7994
िलेटर	-7995
▁कचरा	-7996
▁नबुख	-7997
▁नावे	-7998
▁समजा	-7999
▁भयानक	-8000
▁मनाने	-8001
▁राहतो	-8002
▁मद्देन	-8003
▁वेळेवर	-8004
▁व्यर्थ	-8005
▁स्मृति	-8006
▁मनापासून	-8007
▁स्वीकृति	-8008
▁खाद्यान्न	-8009
▁कार्यान्वित	-8010
▁पच	-8011
▁भो	-8012
▁अही	-8013
▁कोड	-8014
▁परे	-8015
▁लची	-8016
▁शाळ	-8017
नीकरण	-8018
▁खाता	-8019
▁ज्यो	-8020
▁सगळी	-8021
▁सुपर	-8022
▁जाओगे	-8023
▁दुकान	-8024
▁बारिश	-8025
▁मनाया	-8026
▁फार्मा	-8027
▁रखेंगे	-8028
▁खूबसूरत	-8029
▁पुढच्या	-8030
▁गुवाहाटी	-8031
▁रासायनिक	-8032
▁आपल्याकडे	-8033
चला	-8034
फेड	-8035
▁एफ्रा	-8036
▁अग्रणी	-8037
▁प्रसंगी	-8038
▁संकेतस्थ	-8039
▁प्रतीक्षा	-8040
▁झाल्यामुळे	-8041
▁प्रकल्पांचे	-8042
टेड	-8043
▁कस	-8044
पेयी	-8045
ूंनी	-8046
▁195	-8047
▁अहि	-8048
▁कोच	-8049
▁शाय	-8050
▁किरा	-8051
▁भस्म	-8052
▁इब्रा	-8053
▁कप्तान	-8054
▁आव्हाने	-8055
▁दुसर्या	-8056
▁विभागात	-8057
▁मद्देनजर	-8058
▁आयोगाच्या	-8059
▁प्रक्रियाओं	-8060
कम	-8061
तक	-8062
लिम	-8063
▁पळ	-8064
य्या	-8065
र्जन	-8066
▁कोष	-8067
▁ढंग	-8068
▁शर्म	-8069
▁देणारे	-8070
▁विनियम	-8071
▁होमार्	-8072
▁पौष्टिक	-8073
▁कार्यभार	-8074
▁प्रतिदिन	-8075
▁प्रणालियों	-8076
▁क्षेत्राच्या	-8077
ER	-8078
▁३०	-8079
ूंना	-8080
▁लेह	-8081
▁आस्थ	-8082
▁कांग	-8083
▁पाऊस	-8084
▁सोपे	-8085
ांसोबत	-8086
▁बोलतो	-8087
ंदर्भात	-8088
▁तरतुदी	-8089
▁प्रयाग	-8090
▁क्रांती	-8091
▁आकडेवारी	-8092
▁ज्यांच्या	-8093
▁कल्याणासाठी	-8094
AN	-8095
ळणी	-8096
सिडी	-8097
▁नान	-8098
▁बोध	-8099
▁IFFI	-8100
▁नौका	-8101
▁एलईडी	-8102
▁वर्धन	-8103
▁शीघ्र	-8104
▁पंजीकरण	-8105
ag	-8106
▁तृ	-8107
्योन	-8108
▁अथक	-8109
▁खतरा	-8110
▁परवड	-8111
▁नृत्य	-8112
▁फैसले	-8113
▁बांधव	-8114
▁रूग्ण	-8115
▁दुर्बल	-8116
▁परिचित	-8117
▁होमबलि	-8118
▁क्षमताओं	-8119
MR	-8120
शीर	-8121
▁II	-8122
▁बॅ	-8123
▁रम	-8124
▁...	-8125
ांहून	-8126
▁चेता	-8127
▁शायद	-8128
ितांना	-8129
▁केदार	-8130
▁तरीका	-8131
▁नितीन	-8132
▁पावसा	-8133
▁भावने	-8134
▁राहिल	-8135
▁गुन्हे	-8136
▁थोड्या	-8137
▁लद्दाख	-8138
▁स्थाना	-8139
▁ट्रेनों	-8140
▁सफलतापूर्वक	-8141
काय	-8142
फोन	-8143
मेशन	-8144
भाविक	-8145
▁पापी	-8146
▁मारे	-8147
▁संगम	-8148
▁सभाग	-8149
स्टिवल	-8150
▁कितना	-8151
▁कॉरिड	-8152
▁निष्क	-8153
▁मोहीम	-8154
वण्याची	-8155
▁मानकों	-8156
▁वार्ता	-8157
▁सांगितली	-8158
re	-8159
ूसु	-8160
▁आदी	-8161
▁जॉन	-8162
▁फूड	-8163
▁बनले	-8164
▁पापों	-8165
▁भौतिक	-8166
▁कार्गो	-8167
▁निवासी	-8168
▁संतुलन	-8169
▁वाजपेयी	-8170
ीर	-8171
गीर	-8172
धीरे	-8173
▁गंध	-8174
▁पढ़	-8175
▁फैल	-8176
▁सिम	-8177
▁हॉल	-8178
▁मुस्	-8179
▁अपडेट	-8180
▁एमओयू	-8181
▁जाणीव	-8182
▁देखना	-8183
▁सपनों	-8184
▁विक्रम	-8185
्रोद्योग	-8186
▁बैंकिंग	-8187
▁अद्ययावत	-8188
▁प्रदेशों	-8189
▁महानिदेशक	-8190
▁एकत्रितपणे	-8191
न्त	-8192
पणी	-8193
▁अणु	-8194
▁पद्	-8195
▁फाइ	-8196
▁रूस	-8197
▁हरे	-8198
ब्रोन	-8199
▁घेतो	-8200
▁धारण	-8201
▁ब्या	-8202
▁व्यय	-8203
▁हड्ड	-8204
▁डोंगर	-8205
▁दिसते	-8206
▁इंजीनियर	-8207
▁पृष्ठभूमि	-8208
▁प्रयोगशाळ	-8209
घन	-8210
ँसी	-8211
ेंड	-8212
ोगा	-8213
▁44	-8214
▁53	-8215
▁कव	-8216
िकार	-8217
▁ट्व	-8218
▁सवि	-8219
जुर्ग	-8220
▁झाडे	-8221
▁मोटर	-8222
▁समिट	-8223
▁हिता	-8224
▁तम्बू	-8225
▁स्पेश	-8226
▁स्थलों	-8227
▁निसर्गा	-8228
▁पर्वतावर	-8229
▁संदेष्टा	-8230
▁देशांमधील	-8231
▁बाबासाहेब	-8232
बध	-8233
सळ	-8234
ent	-8235
लमो	-8236
स्फ	-8237
एमटी	-8238
▁250	-8239
▁आजू	-8240
▁खाऊ	-8241
▁दात	-8242
विकास	-8243
▁छिपा	-8244
▁जानी	-8245
▁मागा	-8246
▁मेले	-8247
▁वरील	-8248
▁आवेदन	-8249
▁सोडले	-8250
▁जर्मनी	-8251
▁नबुखद्	-8252
▁पहलुओं	-8253
▁मिसळून	-8254
ेंटिलेटर	-8255
▁शिक्षकों	-8256
वनी	-8257
▁कण	-8258
▁गीत	-8259
ज्ज्ञ	-8260
▁अखिल	-8261
▁घोडे	-8262
▁थंडी	-8263
▁भक्त	-8264
▁शंभर	-8265
ऱ्याला	-8266
▁घेतात	-8267
▁पीड़ा	-8268
▁वेळेत	-8269
▁घेतल्या	-8270
▁बुजुर्ग	-8271
▁राष्ट्रपतींनी	-8272
चंद	-8273
भीत	-8274
मेद	-8275
▁ओला	-8276
रीकरण	-8277
▁अगोदर	-8278
▁अवकाश	-8279
▁कारखान	-8280
▁समाचार	-8281
▁मालवाहत	-8282
▁टप्प्यात	-8283
▁फेस्टिवल	-8284
मेक	-8285
वाड	-8286
चलित	-8287
लाचा	-8288
▁उल्	-8289
▁कमा	-8290
▁चाय	-8291
स्करी	-8292
ेसाठी	-8293
▁तंबू	-8294
▁निधि	-8295
▁अशक्त	-8296
▁थोड़ी	-8297
▁लिखित	-8298
▁स्टील	-8299
किय्याह	-8300
▁डिग्री	-8301
▁पाहायला	-8302
▁पुनरुत्	-8303
▁लक्षणीय	-8304
▁श्रीनगर	-8305
▁रचनात्मक	-8306
▁तुमच्यावर	-8307
भौ	-8308
ट्र	-8309
▁एह	-8310
लाची	-8311
▁घास	-8312
▁दखल	-8313
▁कच्छ	-8314
▁नगरे	-8315
▁ऑक्सी	-8316
▁बोलता	-8317
▁सुनने	-8318
▁सॉफ्ट	-8319
▁प्रकोप	-8320
▁अंग्रेजी	-8321
▁निर्देशित	-8322
▁बहुपक्षीय	-8323
▁स्वाक्षरी	-8324
▁आकांक्षाओं	-8325
▁गृहनिर्माण	-8326
▁महत्त्वाची	-8327
▁जयंतीनिमित्त	-8328
▁दिशानिर्देशों	-8329
▁उपराष्ट्रपतींनी	-8330
AT	-8331
ापू	-8332
▁थर	-8333
▁निभ	-8334
▁देगी	-8335
▁पीयू	-8336
▁बापू	-8337
▁जीवनस	-8338
▁ब्याज	-8339
▁माहौल	-8340
▁रहस्य	-8341
▁दाहिने	-8342
▁जगाच्या	-8343
▁योगदाना	-8344
▁पाण्याने	-8345
▁टेक्नोलॉजी	-8346
▁देशवासियों	-8347
गिर	-8348
र्पण	-8349
▁सकल	-8350
नेशनल	-8351
▁आकलन	-8352
▁नर्स	-8353
▁बढ़े	-8354
▁शेतात	-8355
▁स्टेट	-8356
▁हज़ार	-8357
▁खासदार	-8358
▁निसर्ग	-8359
▁मण्डली	-8360
▁इस्त्रा	-8361
▁जनसंख्या	-8362
▁छत्तीसगढ़	-8363
▁अल्पसंख्यक	-8364
▁नियमशास्त्र	-8365
▁कार्यक्रमाला	-8366
ँगा	-8367
जाग	-8368
बां	-8369
्ति	-8370
▁जॉ	-8371
काशी	-8372
▁the	-8373
▁घडा	-8374
▁मेल	-8375
वेदना	-8376
▁इस्प	-8377
▁काला	-8378
▁पावर	-8379
▁फेरी	-8380
▁जायचे	-8381
▁ठेवतो	-8382
▁वर्गों	-8383
▁अवस्थेत	-8384
▁घ्यायला	-8385
▁वनस्पती	-8386
▁व्हिडीओ	-8387
▁पर्यटकांना	-8388
▁सर्वांसाठी	-8389
▁होण्याच्या	-8390
ूएल	-8391
पानी	-8392
▁कंट	-8393
▁बिम	-8394
▁भरी	-8395
▁भाज	-8396
▁शहद	-8397
▁शून	-8398
▁सजा	-8399
एमओयू	-8400
▁पापा	-8401
▁संजय	-8402
▁सवाल	-8403
▁पीयूष	-8404
▁संकटा	-8405
▁सुश्री	-8406
▁सरकारची	-8407
▁किल्ल्या	-8408
▁त्रिपुरा	-8409
▁पदार्थों	-8410
▁स्वाभाविक	-8411
▁क्षेत्रासाठी	-8412
दास	-8413
बेन	-8414
रान	-8415
िणी	-8416
पक्ष	-8417
लाने	-8418
िएशन	-8419
ोनिया	-8420
▁आधीच	-8421
▁तिची	-8422
▁बनवि	-8423
▁मुश्	-8424
▁नितिन	-8425
▁बाधित	-8426
▁भयभीत	-8427
▁कारवाई	-8428
▁जीडीपी	-8429
▁तैयारी	-8430
▁कार्यशा	-8431
▁पहुंचने	-8432
क्षणासाठी	-8433
▁तुमच्याकडे	-8434
▁पारदर्शिता	-8435
▁महाराष्ट्रा	-8436
ऊदी	-8437
चरण	-8438
▁नय	-8439
बाजी	-8440
पट्टी	-8441
▁आढळले	-8442
▁देखकर	-8443
▁निर्या	-8444
▁मनोरंजन	-8445
▁आदरांजली	-8446
▁प्रतिपादन	-8447
▁तुमच्यासाठी	-8448
10	-8449
इत	-8450
ंटन	-8451
डीए	-8452
फान	-8453
ग्रा	-8454
▁कोठ	-8455
▁खाण	-8456
▁साज	-8457
▁अपार	-8458
▁गावे	-8459
▁यंदा	-8460
▁वंशा	-8461
▁इसहाक	-8462
▁कायदे	-8463
▁पूर्त	-8464
▁सच्चा	-8465
ापेक्षा	-8466
▁वर्ल्ड	-8467
▁दूरध्वनी	-8468
▁सांगण्यात	-8469
▁उद्योगांना	-8470
▁नबुखद्नेस्सर	-8471
un	-8472
ुआ	-8473
डाख	-8474
सरा	-8475
▁क्	-8476
एससी	-8477
▁कब्	-8478
▁ठहर	-8479
▁सोह	-8480
तांची	-8481
▁उष्ण	-8482
बाच्या	-8483
▁जिनकी	-8484
▁सीखने	-8485
▁अपनाने	-8486
▁उड्डाण	-8487
▁नीतियों	-8488
▁हेब्रोन	-8489
▁समुदायों	-8490
▁अत्यावश्यक	-8491
▁वस्त्रोद्योग	-8492
ईक	-8493
िण	-8494
▁खर	-8495
काया	-8496
ूसुफ	-8497
▁आउट	-8498
▁राव	-8499
▁रेट	-8500
▁शोम	-8501
▁कंटे	-8502
▁धोखा	-8503
▁सूचन	-8504
धिकारी	-8505
▁अंतर्	-8506
▁अंधार	-8507
▁पद्धत	-8508
▁विद्व	-8509
▁वीरता	-8510
▁अनुवाद	-8511
▁इंतजार	-8512
▁करायचा	-8513
▁2016-17	-8514
▁शिष्यों	-8515
रम	-8516
ळक	-8517
गिल	-8518
वयास	-8519
घेवाण	-8520
▁2013	-8521
▁चालत	-8522
▁वहीं	-8523
▁वादा	-8524
▁समझा	-8525
▁सावध	-8526
सुध्दा	-8527
▁यूसुफ	-8528
▁वडिला	-8529
▁उत्कृष्टता	-8530
hi	-8531
ुअल	-8532
ovid	-8533
डिंग	-8534
िंगत	-8535
▁जमी	-8536
▁अमीर	-8537
▁काया	-8538
▁तप्त	-8539
▁बिया	-8540
▁साखर	-8541
▁सोयी	-8542
▁खातों	-8543
▁वर्णन	-8544
▁वाहून	-8545
▁दीनदया	-8546
▁रिटर्न	-8547
▁विपरीत	-8548
▁होणारा	-8549
▁सविस्तर	-8550
▁स्कूलों	-8551
▁विश्वसनीय	-8552
▁प्रमाणपत्र	-8553
▁वर्षांच्या	-8554
धीन	-8555
▁52	-8556
▁अनो	-8557
▁घेर	-8558
▁चोर	-8559
ज्जित	-8560
▁अब्द	-8561
▁कमरे	-8562
▁जाळे	-8563
▁दबाव	-8564
▁सौदी	-8565
▁टप्पा	-8566
▁दस्ता	-8567
▁बताते	-8568
▁बराबर	-8569
▁रवाना	-8570
▁शत्रु	-8571
▁बांधणी	-8572
▁मिश्रण	-8573
▁निकोबार	-8574
▁बाजारों	-8575
▁वेबसाइट	-8576
▁स्पर्धे	-8577
विद्यालया	-8578
▁ईमानदारी	-8579
▁वृद्धिंगत	-8580
▁अफगानिस्तान	-8581
▁पंतप्रधानांना	-8582
-3	-8583
मल	-8584
han	-8585
एचए	-8586
बों	-8587
सास	-8588
्रल	-8589
म्मद	-8590
्राय	-8591
▁अजन	-8592
▁जीवा	-8593
▁नंबर	-8594
▁अकेले	-8595
▁बोलणे	-8596
▁मतदान	-8597
▁मालिक	-8598
▁बांधले	-8599
ऱ्याच्या	-8600
▁राज्यां	-8601
▁भविष्यद्व	-8602
▁रेल्वेच्या	-8603
▁कर्मचाऱ्यांना	-8604
us	-8605
ter	-8606
दाद	-8607
पीओ	-8608
मेड	-8609
▁रोश	-8610
▁आपात	-8611
▁ध्ये	-8612
▁सपना	-8613
▁उन्हा	-8614
▁दैनंद	-8615
▁निश्च	-8616
▁नौवहन	-8617
▁ब्लॉक	-8618
▁समझने	-8619
▁एशियाई	-8620
▁तस्करी	-8621
▁पुनर्व	-8622
▁ताब्यात	-8623
▁सल्लागार	-8624
▁प्रतिस्पर्धा	-8625
तमंद	-8626
▁औसत	-8627
▁ठोक	-8628
▁विस	-8629
▁सिन	-8630
क्रमी	-8631
लीकरण	-8632
▁खतरे	-8633
▁नानक	-8634
▁सुखद	-8635
▁दुग्ध	-8636
▁पोलाद	-8637
▁वाढली	-8638
▁होंगी	-8639
▁उजव्या	-8640
▁एकीकरण	-8641
▁पार्टी	-8642
▁बऱ्याच	-8643
▁कोणालाही	-8644
▁जाण्याची	-8645
▁केल्यामुळे	-8646
▁व्यतिरिक्त	-8647
णि	-8648
मोडी	-8649
शोधन	-8650
स्या	-8651
ीकरण	-8652
▁हाई	-8653
ड़ेकर	-8654
▁गंगे	-8655
▁चौथा	-8656
▁शलमो	-8657
▁सौंप	-8658
▁हाइड	-8659
▁आभारी	-8660
▁बँकिंग	-8661
▁तकनीकों	-8662
▁सार्वभौ	-8663
▁चिकित्सक	-8664
▁जावड़ेकर	-8665
▁यिर्मयाह	-8666
▁प्रशासनिक	-8667
▁विद्यापीठा	-8668
▁अफगाणिस्तान	-8669
ha	-8670
ैक	-8671
वती	-8672
▁इश	-8673
एफसी	-8674
सिटी	-8675
▁लाज	-8676
▁वात	-8677
▁कळेल	-8678
▁नेहर	-8679
▁मुड़	-8680
▁विधि	-8681
▁सब्त	-8682
सरकारी	-8683
▁किफाय	-8684
▁देखें	-8685
▁विषयी	-8686
▁खोट्या	-8687
▁चट्टान	-8688
▁नावाचा	-8689
▁बढ़ाकर	-8690
▁क्रमांक	-8691
▁संभावित	-8692
▁सब्सिडी	-8693
▁सिय्योन	-8694
▁प्लेटफॉर्म	-8695
▁बनवण्यासाठी	-8696
16	-8697
यरी	-8698
▁इज	-8699
▁नमक	-8700
▁पुत	-8701
▁अलिक	-8702
▁भलाई	-8703
▁रिया	-8704
▁ग्रंथ	-8705
▁चालीस	-8706
▁रोशनी	-8707
▁गठबंधन	-8708
▁नदियों	-8709
▁सद्भाव	-8710
ण्याबाबत	-8711
▁पराक्रमी	-8712
▁धर्मेंद्र	-8713
▁उद्देश्यों	-8714
▁शहरांमध्ये	-8715
कटी	-8716
दूस	-8717
शोन	-8718
ष्म	-8719
वणार	-8720
▁आधे	-8721
▁धबध	-8722
ंमुळे	-8723
क्रमण	-8724
जातीय	-8725
▁अमृत	-8726
▁उड्ड	-8727
▁जाएं	-8728
▁पाइप	-8729
▁भर्ती	-8730
्यानंतर	-8731
▁क्रमां	-8732
▁सक्रीय	-8733
▁दस्तावे	-8734
▁यहूदाचा	-8735
▁निष्कर्ष	-8736
▁परिषदेला	-8737
▁कार्यशाला	-8738
▁त्यानुसार	-8739
▁बाबेलच्या	-8740
ंदे	-8741
▁39	-8742
क्कर	-8743
त्रे	-8744
▁जणू	-8745
▁ताल	-8746
▁बहि	-8747
पणाने	-8748
पर्यत	-8749
लंबित	-8750
वतीने	-8751
▁जाणे	-8752
▁टिका	-8753
▁पापे	-8754
दाच्या	-8755
▁व्याज	-8756
▁हितों	-8757
▁अनुसरण	-8758
▁आशियाई	-8759
▁गाँवों	-8760
▁पार्सल	-8761
▁रेडियो	-8762
▁स्वीडन	-8763
▁होणारे	-8764
▁विभागों	-8765
▁तेलंगाना	-8766
▁बोलतांना	-8767
▁गृहमंत्री	-8768
ैकी	-8769
▁फो	-8770
▁हद	-8771
हिता	-8772
▁-20	-8773
▁196	-8774
ख्यात	-8775
▁चावल	-8776
▁मजदूर	-8777
▁लढाईत	-8778
▁वसलेले	-8779
▁उद्यानात	-8780
▁प्रतिकूल	-8781
▁अन्नधान्य	-8782
▁प्रतिनिधि	-8783
फाट	-8784
बांध	-8785
याची	-8786
▁घेव	-8787
▁शूर	-8788
संस्थ	-8789
▁वैभव	-8790
▁खेलों	-8791
▁असणारे	-8792
▁चौथ्या	-8793
▁यापुढे	-8794
▁दैनंदिन	-8795
▁मुश्किल	-8796
▁दहशतवादी	-8797
▁दूरदर्शन	-8798
▁व्याप्ती	-8799
▁उभारण्यात	-8800
वो	-8801
,";	-8802
संर	-8803
▁95	-8804
▁इंज	-8805
▁गढ़	-8806
▁चली	-8807
▁जगत	-8808
▁वेद	-8809
▁कुंड	-8810
▁नर्म	-8811
▁खऱ्या	-8812
▁तीसरा	-8813
▁तोडगा	-8814
▁मालकी	-8815
▁विद्र	-8816
▁शमूएल	-8817
▁आयआयटी	-8818
▁द्यावा	-8819
▁लेनदेन	-8820
▁एफ्राईम	-8821
▁महिलांच्या	-8822
▁पारिस्थितिकी	-8823
गढ	-8824
जीर	-8825
तौर	-8826
रखा	-8827
लोन	-8828
▁झर	-8829
▁खोक	-8830
▁दाल	-8831
▁भरे	-8832
▁माफ	-8833
▁मछली	-8834
▁शहीद	-8835
▁अलीशा	-8836
▁कृष्ण	-8837
▁पंचायत	-8838
▁प्रकरण	-8839
▁असाधारण	-8840
▁शेवटच्या	-8841
▁विस्तारित	-8842
MS	-8843
िमय	-8844
म्या	-8845
सिंह	-8846
्रीत	-8847
▁आयर	-8848
▁खतर	-8849
▁गोर	-8850
▁बोट	-8851
▁शेख	-8852
▁हिल	-8853
पुरुष	-8854
▁आणीन	-8855
▁एकही	-8856
▁किंग	-8857
▁चीज़	-8858
▁दावत	-8859
▁पटना	-8860
▁मच्छ	-8861
▁मेघा	-8862
▁पिछली	-8863
▁राहते	-8864
▁हिंदू	-8865
विज्ञान	-8866
▁अनुप्र	-8867
▁इस्पात	-8868
▁अस्तित्	-8869
▁संस्थांना	-8870
15	-8871
बरी	-8872
स्को	-8873
▁गों	-8874
▁छवि	-8875
▁माप	-8876
▁कोणा	-8877
▁जुड़	-8878
▁थोडा	-8879
▁बचने	-8880
विमर्श	-8881
▁क्लिक	-8882
▁घेणार	-8883
▁बताता	-8884
▁सतर्क	-8885
▁समस्य	-8886
▁उड्डयन	-8887
▁उपचारा	-8888
▁मास्टर	-8889
▁शेजारी	-8890
▁निर्दोष	-8891
▁गेलेल्या	-8892
▁यहूदातील	-8893
▁पहाड़ियों	-8894
▁संस्थेच्या	-8895
▁सहकार्यासाठी	-8896
ापक	-8897
ेंत	-8898
माचा	-8899
वितो	-8900
▁बेत	-8901
▁लगी	-8902
▁अतीत	-8903
▁सब्ज	-8904
▁नेहरू	-8905
▁पुष्प	-8906
▁घटनाओं	-8907
▁छोड़कर	-8908
▁स्पर्धात्मक	-8909
ड़ब	-8910
▁56	-8911
▁चूक	-8912
▁सिक	-8913
क्षिक	-8914
ब्लिक	-8915
लादेश	-8916
▁क्रॉ	-8917
▁दावा	-8918
▁रानी	-8919
▁लडाख	-8920
▁अलगाव	-8921
▁आजारी	-8922
▁इंग्र	-8923
▁जवळचे	-8924
▁निधना	-8925
▁सिंचन	-8926
▁दळणवळण	-8927
▁याजकों	-8928
▁सीमाओं	-8929
▁इनोवेशन	-8930
▁दुष्टता	-8931
▁सर्वाना	-8932
▁होण्यास	-8933
▁उज्ज्वला	-8934
▁जरूरतमंद	-8935
▁शरीराच्या	-8936
▁महाविद्यालय	-8937
पिता	-8938
ियाल	-8939
्रेट	-8940
▁चेक	-8941
▁नमन	-8942
▁फोड	-8943
दूसरे	-8944
ांतील	-8945
▁सकाळ	-8946
ंत्रिक	-8947
▁काहीच	-8948
▁महिने	-8949
▁वाजता	-8950
▁शब्बा	-8951
▁मिळतात	-8952
▁स्वस्त	-8953
▁जनजातीय	-8954
▁तुझ्यावर	-8955
▁गोष्टींचा	-8956
▁डेवलपमेंट	-8957
▁व्यवस्थित	-8958
▁वर्षांपासून	-8959
▁संस्थांच्या	-8960
AS	-8961
NS	-8962
थर	-8963
ीम	-8964
▁O	-8965
ासह	-8966
िवृ	-8967
ूलन	-8968
▁72	-8969
▁74	-8970
▁आश	-8971
ियार	-8972
▁पंड	-8973
▁पहन	-8974
▁लोह	-8975
▁टिकट	-8976
▁टिप्	-8977
▁मेळा	-8978
▁हैंड	-8979
▁शिमोन	-8980
विरोधात	-8981
▁पाठलाग	-8982
▁ब्रह्म	-8983
▁एकमात्र	-8984
▁द्वितीय	-8985
▁विषयावर	-8986
▁प्रक्षेपण	-8987
▁किनार्यावर	-8988
िफ	-8989
बंद	-8990
०००	-8991
▁टॅ	-8992
▁तह	-8993
▁भास	-8994
▁असली	-8995
▁कबूल	-8996
▁काली	-8997
▁ईपीएफ	-8998
▁दुर्गम	-8999
▁नमूनों	-9000
▁जगभरातील	-9001
▁राज्यसभा	-9002
▁विकासाचे	-9003
ing	-9004
तला	-9005
नॉल	-9006
रीस	-9007
रेखा	-9008
लेगा	-9009
▁दफन	-9010
▁पोच	-9011
दारों	-9012
नाथान	-9013
▁जलाश	-9014
▁लेखा	-9015
▁वेशी	-9016
▁शिवा	-9017
▁ड्राइ	-9018
▁हिंदु	-9019
▁एफडीआई	-9020
▁नवीनतम	-9021
▁सेनाओं	-9022
▁गणमान्य	-9023
▁वस्त्रे	-9024
▁डोंगरावर	-9025
▁साथीच्या	-9026
▁एकमेकांना	-9027
▁मुलांच्या	-9028
▁रस्त्यावर	-9029
▁नाविन्यपूर्ण	-9030
▁आळा	-9031
▁कना	-9032
▁कले	-9033
▁दुप	-9034
▁नबी	-9035
▁समू	-9036
▁एनसी	-9037
▁सुखी	-9038
पासूनच	-9039
▁पन्ना	-9040
▁शून्य	-9041
▁10,000	-9042
▁असंख्य	-9043
▁ट्रम्प	-9044
▁प्रसारित	-9045
जक	-9046
भु	-9047
इंट	-9048
कोष	-9049
ठों	-9050
बाई	-9051
लेल	-9052
ठ्या	-9053
▁दीड	-9054
▁मजा	-9055
क्षेत	-9056
▁लघवी	-9057
जागृती	-9058
स्वच्छ	-9059
▁अभ्या	-9060
▁घराने	-9061
▁जानकर	-9062
▁बोलने	-9063
▁युरोप	-9064
▁मधल्या	-9065
▁दर्शाता	-9066
▁मार्केट	-9067
▁रैंकिंग	-9068
▁सुंदरता	-9069
▁संध्याकाळ	-9070
▁रुग्णालयात	-9071
▁43	-9072
▁ओढ	-9073
▁झो	-9074
बाला	-9075
लिटी	-9076
ैतिक	-9077
▁तूच	-9078
▁फिन	-9079
▁रखे	-9080
▁सऊदी	-9081
ख्याने	-9082
रित्या	-9083
▁असावा	-9084
▁जनावर	-9085
▁मॉडेल	-9086
▁स्वाद	-9087
▁काउंसिल	-9088
▁खात्यात	-9089
▁परिसरात	-9090
200	-9091
मोथ	-9092
ष्‍	-9093
▁उम	-9094
करुन	-9095
▁घुट	-9096
▁जबर	-9097
▁भटक	-9098
▁Shri	-9099
▁यूनि	-9100
पालिका	-9101
वानिवृ	-9102
▁उचलली	-9103
▁कामात	-9104
▁देवदू	-9105
▁पार्ट	-9106
▁सिविल	-9107
▁भेदभाव	-9108
▁स्वराज	-9109
▁विभाजित	-9110
▁उत्सर्जन	-9111
▁उद्यमिता	-9112
ंथी	-9113
पुत	-9114
ोंग	-9115
आईआर	-9116
आयआय	-9117
िकेट	-9118
ेंसी	-9119
▁600	-9120
ंत्रा	-9121
राबाम	-9122
्यूरो	-9123
▁निकष	-9124
▁बोलू	-9125
पदार्थ	-9126
▁अपमान	-9127
▁उल्लं	-9128
▁चरणों	-9129
▁पुजार	-9130
▁बालों	-9131
▁सुप्र	-9132
ांनुसार	-9133
▁घ्यावी	-9134
▁ज्याचा	-9135
▁दाखवले	-9136
▁भाषाओं	-9137
▁आंबेडकर	-9138
▁कानूनों	-9139
▁घडामोडी	-9140
▁स्पर्धेत	-9141
▁इंटरनेशनल	-9142
▁स्क्रीनिंग	-9143
▁प्रत्यक्षात	-9144
▁प्रत्येकाला	-9145
रोह	-9146
दाचा	-9147
▁कही	-9148
▁ग्ल	-9149
▁धोक	-9150
▁फेक	-9151
▁दूता	-9152
▁फेंक	-9153
▁सिंध	-9154
▁टैक्स	-9155
▁महसूल	-9156
▁लचीला	-9157
भागियों	-9158
वण्याचा	-9159
▁कारगिल	-9160
▁मुद्दा	-9161
▁येण्या	-9162
▁उज्ज्वल	-9163
▁नकारात्मक	-9164
▁महोत्सवात	-9165
▁वर्षांमध्ये	-9166
▁प्रतिभागियों	-9167
IR	-9168
ँग	-9169
फो	-9170
ुरु	-9171
एमसी	-9172
बर्ग	-9173
वाले	-9174
▁गटा	-9175
▁मोर	-9176
▁हां	-9177
जेदार	-9178
▁ऊँची	-9179
▁कारी	-9180
▁पढ़ा	-9181
▁क्षति	-9182
▁जितना	-9183
▁डेयरी	-9184
धिकारिक	-9185
वण्याचे	-9186
▁पुत्रा	-9187
▁महानगर	-9188
▁मानवीय	-9189
▁इंडियास	-9190
▁मालमत्ता	-9191
▁विधानसभा	-9192
▁स्थानांतरित	-9193
हट	-9194
टिल	-9195
लेय	-9196
ेंग	-9197
▁लेप	-9198
▁वैध	-9199
▁शौच	-9200
पुत्र	-9201
▁2021	-9202
▁आणली	-9203
▁बहाल	-9204
ासत्ता	-9205
▁अनुया	-9206
▁संतों	-9207
▁द्यावी	-9208
▁उपलब्धियों	-9209
▁महामारीच्या	-9210
▁राष्ट्रांना	-9211
▁विश्वविद्यालयों	-9212
ro	-9213
चय	-9214
ुड	-9215
२०	-9216
दाय	-9217
साई	-9218
▁हब	-9219
▁अनू	-9220
▁खडक	-9221
▁मूत	-9222
तोपरी	-9223
▁अदाल	-9224
▁गाडी	-9225
▁तिरु	-9226
▁दस्त	-9227
▁दानी	-9228
ियांना	-9229
▁एजेंसी	-9230
▁प्रांत	-9231
▁बिस्तर	-9232
▁मरीजों	-9233
▁यराबाम	-9234
▁लैंगिक	-9235
▁म्हणालो	-9236
▁जनजागृती	-9237
▁भविष्यातील	-9238
▁निर्मितीसाठी	-9239
जै	-9240
रोग	-9241
यरोग	-9242
लाला	-9243
ळाचा	-9244
्रीट	-9245
▁मणि	-9246
▁यौन	-9247
समवेत	-9248
स्टिट	-9249
▁चोरी	-9250
▁बढ़ता	-9251
▁म्हणू	-9252
▁विजेत	-9253
ेंतर्गत	-9254
▁खाण्या	-9255
▁मिळतील	-9256
▁संशोधक	-9257
करणाच्या	-9258
▁स्वयंपा	-9259
▁परिवर्तित	-9260
▁सुविधाजनक	-9261
▁कंपन्यांना	-9262
सच	-9263
▁46	-9264
गांठ	-9265
▁Pra	-9266
▁दां	-9267
वारों	-9268
▁अनाज	-9269
▁आफ्र	-9270
▁काळी	-9271
▁दिसू	-9272
तेमुळे	-9273
▁गर्मी	-9274
▁ट्रैक	-9275
▁प्रबंध	-9276
▁अमेरिकन	-9277
▁अत्याचार	-9278
▁आधिकारिक	-9279
▁प्रजासत्ता	-9280
▁काढण्यासाठी	-9281
▁गुंतवणूकदार	-9282
CI	-9283
ant	-9284
वेट	-9285
ुलर	-9286
बीटी	-9287
▁गईं	-9288
मार्क	-9289
▁पडेल	-9290
म्रपान	-9291
▁एखादी	-9292
▁गर्दी	-9293
▁ठरवले	-9294
▁पुण्य	-9295
▁स्थूल	-9296
▁नारायण	-9297
▁लोकांनो	-9298
▁केंद्रात	-9299
▁व्याख्या	-9300
▁यरुशलेमला	-9301
▁राज्यांनी	-9302
▁पुनरुत्थान	-9303
95	-9304
्‍य	-9305
▁ऋष	-9306
▁नद	-9307
ायचे	-9308
▁197	-9309
▁इश्	-9310
▁गंत	-9311
▁गाद	-9312
▁जवा	-9313
▁लाई	-9314
दानिक	-9315
▁2000	-9316
▁डीआर	-9317
▁पालक	-9318
▁लाइफ	-9319
▁ओदिशा	-9320
▁पुकार	-9321
▁निवडले	-9322
▁होणारी	-9323
▁बन्यामीन	-9324
▁मोठ्याने	-9325
▁विकासशील	-9326
▁पुजारियों	-9327
▁दीर्घकालीन	-9328
▁महत्त्वाच्या	-9329
नेर	-9330
▁इजा	-9331
▁पडली	-9332
▁संधि	-9333
▁सिद्	-9334
▁भूकंप	-9335
▁विवेक	-9336
यांच्या	-9337
▁वाहिली	-9338
▁वेश्या	-9339
▁अनुग्रह	-9340
▁देशातून	-9341
▁समितीने	-9342
▁वर्षगांठ	-9343
▁राहण्यासाठी	-9344
▁शेतकऱ्यांच्या	-9345
हेल	-9346
▁आइए	-9347
▁धरण	-9348
▁जमीनी	-9349
▁टाकून	-9350
▁दाखवून	-9351
▁देण्यास	-9352
▁यंत्रणे	-9353
▁विकासात	-9354
▁समारंभात	-9355
▁दीर्घकालिक	-9356
▁मंत्रालयों	-9357
▁आत्तापर्यंत	-9358
▁राष्ट्रांच्या	-9359
▁पन	-9360
▁फट	-9361
जियम	-9362
▁एके	-9363
▁वाघ	-9364
▁नकार	-9365
▁मद्य	-9366
▁इंद्र	-9367
▁नेत्र	-9368
▁परंतू	-9369
▁बलवान	-9370
▁स्टाफ	-9371
▁दिलेली	-9372
▁सशक्ती	-9373
▁आल्याचे	-9374
▁उपलब्धि	-9375
▁मेजबानी	-9376
▁विरोधात	-9377
▁समारंभा	-9378
▁विकासाची	-9379
▁शेतकऱ्यांचे	-9380
ev	-9381
-15	-9382
णित	-9383
्मी	-9384
▁58	-9385
▁91	-9386
र्या	-9387
विता	-9388
श्री	-9389
▁धूल	-9390
▁अभाव	-9391
▁कोने	-9392
▁चालक	-9393
▁ड्रग	-9394
▁त्रि	-9395
▁राणी	-9396
▁लिंग	-9397
▁करतोस	-9398
▁समजले	-9399
▁सियोन	-9400
ारासाठी	-9401
▁घ्यावा	-9402
▁विश्वा	-9403
▁कार्यकाल	-9404
▁विलगीकरण	-9405
▁बांधण्यात	-9406
▁यांच्यासह	-9407
▁इंजीनियरिंग	-9408
▁श्रद्धांजली	-9409
HA	-9410
धरी	-9411
▁67	-9412
▁छत	-9413
क्टे	-9414
शासन	-9415
▁गले	-9416
▁फोट	-9417
▁उमेद	-9418
▁कुष्ठ	-9419
▁निहित	-9420
▁कहेंगे	-9421
▁निवेदन	-9422
▁जोडलेले	-9423
▁मध्यस्थ	-9424
▁हिरव्या	-9425
▁केल्याचे	-9426
▁पाहण्यासाठी	-9427
▁कार्यक्रमाचे	-9428
▁नागरिकांच्या	-9429
iv	-9430
शः	-9431
ीण	-9432
बरा	-9433
्रम	-9434
▁85	-9435
ोषित	-9436
▁रहि	-9437
▁काठी	-9438
▁पोखर	-9439
▁बचाओ	-9440
▁सूजन	-9441
▁फसलों	-9442
▁बाह्य	-9443
▁शतकात	-9444
▁संभाल	-9445
▁हातून	-9446
▁ग्रस्त	-9447
▁काहीतरी	-9448
▁नैदानिक	-9449
▁पंजीकृत	-9450
▁अनुमानित	-9451
कन	-9452
ायझ	-9453
ोनी	-9454
▁in	-9455
,500	-9456
▁शीत	-9457
▁हाइ	-9458
▁2025	-9459
▁इकाई	-9460
▁ऊंचे	-9461
▁भ्रम	-9462
वरच्या	-9463
▁आलेली	-9464
▁कन्या	-9465
▁घेवून	-9466
▁ठरणार	-9467
▁परिणा	-9468
▁विश्र	-9469
▁अंधेरे	-9470
▁कृत्ये	-9471
▁बांधली	-9472
▁वाढवणे	-9473
▁डोंगराळ	-9474
▁पहुँचने	-9475
▁अधिकारों	-9476
▁प्रगतीचा	-9477
▁होण्याचे	-9478
▁कॉर्पोरेशन	-9479
▁यरुशलेमच्या	-9480
▁महाविद्यालया	-9481
PS	-9482
ट्	-9483
▁&	-9484
ंपा	-9485
पाट	-9486
▁उठे	-9487
मियों	-9488
▁नयेत	-9489
▁विदा	-9490
कल्पिक	-9491
▁प्रजन	-9492
▁बनारस	-9493
▁कानूनी	-9494
▁निघाला	-9495
▁पुराना	-9496
▁कदाचित्	-9497
▁केल्यास	-9498
▁बैठकीला	-9499
▁सशक्तिकरण	-9500
▁सर्वसामान्य	-9501
▁परिस्थितियों	-9502
▁त्याच्याबरोबर	-9503
पीए	-9504
लील	-9505
ळीस	-9506
ोकस	-9507
ंधरा	-9508
मधले	-9509
ान्त	-9510
▁खुल	-9511
▁ताण	-9512
▁दीं	-9513
▁रिम	-9514
▁गांव	-9515
▁ट्वी	-9516
▁बराम	-9517
▁बीएस	-9518
▁भाकर	-9519
▁शिल्	-9520
ळीच्या	-9521
▁उत्ते	-9522
▁ग्राह	-9523
▁जायला	-9524
▁शालेय	-9525
▁सव्वा	-9526
णाऱ्यां	-9527
नामध्ये	-9528
▁पाहिली	-9529
▁बाधाओं	-9530
▁येणारे	-9531
▁फिल्म्स	-9532
▁योनाथान	-9533
▁असल्याचा	-9534
▁नावाच्या	-9535
▁वैकल्पिक	-9536
▁संदेष्टे	-9537
▁भविष्यवाणी	-9538
▁राज्याच्या	-9539
डम	-9540
बेल	-9541
▁अॅ	-9542
▁फॅ	-9543
▁मस	-9544
मंडळ	-9545
स्टा	-9546
रूद्ध	-9547
लीकडे	-9548
्राला	-9549
▁किना	-9550
▁सैला	-9551
▁अतिथि	-9552
▁गिदोन	-9553
▁संप्र	-9554
▁हत्ती	-9555
▁घ्यावे	-9556
▁बांधून	-9557
▁शोमरोन	-9558
▁आज्ञाओं	-9559
▁ब्रिटिश	-9560
▁याबद्दल	-9561
▁सलाहकार	-9562
▁परिदृश्य	-9563
▁प्रस्तुति	-9564
▁सर्वतोपरी	-9565
▁प्रायश्चित	-9566
▁कार्यक्षमता	-9567
14	-9568
”,	-9569
टून	-9570
धों	-9571
साइ	-9572
▁(20	-9573
▁ऑक्	-9574
▁कौश	-9575
▁सदा	-9576
ग्राम	-9577
▁दोघे	-9578
▁शाही	-9579
▁कारकि	-9580
▁तातडी	-9581
▁निराश	-9582
▁मुकुट	-9583
▁असायला	-9584
▁पेमेंट	-9585
▁ईमानदार	-9586
▁नव्याने	-9587
▁समाजातील	-9588
▁बांगलादेश	-9589
▁शिलान्यास	-9590
▁हिजकिय्याह	-9591
lt	-9592
-16	-9593
ंजा	-9594
सीओ	-9595
▁अच	-9596
▁अत	-9597
धारी	-9598
▁पडू	-9599
▁फिल्	-9600
▁हेरो	-9601
▁कामना	-9602
▁शिमला	-9603
▁मिद्या	-9604
▁विक्रे	-9605
▁वेगवान	-9606
▁स्मृती	-9607
ळ्याच्या	-9608
▁अपशिष्ट	-9609
▁प्रकारचा	-9610
▁शलमोनाने	-9611
▁पाण्याच्या	-9612
▁व्यक्तींना	-9613
▁प्रयत्नांना	-9614
ct	-9615
▁हस	-9616
प्ले	-9617
ेंटी	-9618
▁अरा	-9619
▁ऑटो	-9620
▁दीप	-9621
चंद्र	-9622
▁अशाच	-9623
▁झाडा	-9624
▁गतीने	-9625
▁नैतिक	-9626
▁स्तरा	-9627
▁स्वरु	-9628
▁गोव्या	-9629
▁सरासरी	-9630
तांत्रिक	-9631
▁मंदिरों	-9632
▁सॉफ्टवे	-9633
▁हल्ल्या	-9634
▁नसलेल्या	-9635
▁समाजाच्या	-9636
▁प्रस्थापित	-9637
▁हस्तांतरित	-9638
▁त्यांच्याकडे	-9639
▁सर्वोत्कृष्ट	-9640
▁परमेश्वरासमोर	-9641
ग्न	-9642
वील	-9643
▁ढग	-9644
एसएस	-9645
मुखी	-9646
▁ऑफ़	-9647
▁बेस	-9648
▁वीस	-9649
स्कृत	-9650
ाराचे	-9651
▁मृदा	-9652
▁लाइव	-9653
▁शाळा	-9654
▁हिला	-9655
संदर्भ	-9656
▁करदात	-9657
▁ग्रुप	-9658
▁पाठबळ	-9659
▁बुखार	-9660
▁भूमिक	-9661
▁गंतव्य	-9662
▁सुरवात	-9663
▁आधीच्या	-9664
▁केन्द्र	-9665
▁बाजारात	-9666
▁वर्षांत	-9667
▁शत्रुओं	-9668
▁निर्देशक	-9669
▁वाळवंटात	-9670
▁मुद्यांवर	-9671
▁सहकार्याबाबत	-9672
यचा	-9673
यची	-9674
ावर	-9675
ोधक	-9676
रेगा	-9677
▁कमर	-9678
▁दोप	-9679
▁बाण	-9680
▁सूज	-9681
▁इंधन	-9682
▁बैठे	-9683
▁योगी	-9684
▁कच्चे	-9685
▁गहराई	-9686
▁ग्रिड	-9687
▁नियमन	-9688
▁पाहतो	-9689
▁भक्कम	-9690
▁योवाश	-9691
▁सर्वच	-9692
ोग्राफी	-9693
▁चाहूंगा	-9694
▁चेतावनी	-9695
▁युगांडा	-9696
▁आठवड्यात	-9697
▁दिवसातून	-9698
▁शांतिपूर्ण	-9699
▁कार्यकर्ताओं	-9700
ir	-9701
णात	-9702
▁47	-9703
▁शर	-9704
गरों	-9705
ध्दी	-9706
र्वी	-9707
साचा	-9708
▁370	-9709
▁गुर	-9710
▁सीट	-9711
च्‍या	-9712
▁कब्र	-9713
▁कहां	-9714
▁मधून	-9715
▁यवाब	-9716
▁रिश्	-9717
▁साठा	-9718
्रीवाद	-9719
▁अड्डा	-9720
▁बहुते	-9721
▁हंगाम	-9722
▁दुर्लभ	-9723
▁शिवाजी	-9724
मुख्याने	-9725
▁ज्यावेळी	-9726
गडा	-9727
मेन	-9728
सैन	-9729
्वल	-9730
▁63	-9731
ंवार	-9732
वणूक	-9733
्यूल	-9734
्रीम	-9735
▁चहा	-9736
▁नोड	-9737
▁सदन	-9738
▁";";	-9739
▁खाया	-9740
▁तर्क	-9741
▁बढ़ी	-9742
▁मिलते	-9743
▁श्वसन	-9744
▁नागपुर	-9745
▁लाऊंगा	-9746
▁सभ्यता	-9747
▁सामोरे	-9748
▁उद्यमों	-9749
▁गतिशीलता	-9750
▁धूम्रपान	-9751
▁समुद्रात	-9752
▁अनुप्रयोग	-9753
▁शास्त्रज्ञ	-9754
▁सर्वांच्या	-9755
▁योजनेंतर्गत	-9756
▁अर्थव्यवस्थेला	-9757
▁प्रधानमंत्रियों	-9758
ज़ा	-9759
▁लॅ	-9760
लक्ष	-9761
ल्लभ	-9762
▁असर	-9763
▁जरा	-9764
▁पीड	-9765
▁रखो	-9766
दर्शी	-9767
ाराचा	-9768
▁उदार	-9769
▁कहाँ	-9770
▁चुने	-9771
▁बाबत	-9772
▁संगर	-9773
▁करुणा	-9774
▁चाँदी	-9775
▁डूइंग	-9776
▁तासात	-9777
▁पंडित	-9778
▁राजीव	-9779
▁ठरविले	-9780
▁ब्रिटन	-9781
▁स्पेशल	-9782
▁अपराधों	-9783
▁आयोगाचे	-9784
▁जीवनमान	-9785
▁पशुपालन	-9786
▁छत्तीसगड	-9787
▁झाल्याने	-9788
▁सादरीकरण	-9789
▁प्रामुख्याने	-9790
▁झे	-9791
ष्णु	-9792
▁कोक	-9793
वडिला	-9794
ोवताल	-9795
▁नागा	-9796
▁पदवी	-9797
▁शकले	-9798
क्षांत	-9799
▁ब्रॉड	-9800
▁मल्टी	-9801
▁यूरिया	-9802
▁जबाबदार	-9803
▁संतुष्ट	-9804
▁छायाचित्र	-9805
▁आमच्यासाठी	-9806
कैया	-9807
दातर	-9808
माचे	-9809
्लेश	-9810
▁खनन	-9811
▁कलाम	-9812
▁पीतल	-9813
▁फ्रे	-9814
▁हवेत	-9815
श्वस्त	-9816
▁इशारा	-9817
▁उपभोग	-9818
▁प्रसू	-9819
▁लाभों	-9820
काश्मीर	-9821
▁कारणों	-9822
▁चौड़ाई	-9823
▁संगरोध	-9824
पेक्षाही	-9825
▁आधारावर	-9826
▁मोहम्मद	-9827
▁संभाव्य	-9828
▁ऊंचाइयों	-9829
▁चक्रीवाद	-9830
▁पेशेवरों	-9831
▁वर्षासाठी	-9832
▁त्यांच्याबरोबर	-9833
PE	-9834
गृ	-9835
बॉ	-9836
ंडन	-9837
टीत	-9838
जमान	-9839
▁नवन	-9840
▁बेन	-9841
▁सोय	-9842
त्याच	-9843
▁आगमन	-9844
▁क्रू	-9845
▁तंबा	-9846
▁पेशा	-9847
▁मंडप	-9848
▁विधी	-9849
▁गर्दन	-9850
▁तेथेच	-9851
▁लाएगा	-9852
▁ह्यां	-9853
▁कंटेनर	-9854
▁ऑक्सीजन	-9855
▁दर्शवली	-9856
▁सहाय्यक	-9857
ांप्रमाणे	-9858
▁दीक्षांत	-9859
▁परिणामों	-9860
▁व्यभिचार	-9861
▁ज्याप्रमाणे	-9862
अन	-9863
’,	-9864
चेल	-9865
टाइ	-9866
बेट	-9867
रिस	-9868
च्ची	-9869
दुर्	-9870
स्पद	-9871
्हें	-9872
▁धात	-9873
च्छेद	-9874
▁चरबी	-9875
▁तटीय	-9876
▁बनला	-9877
▁लगते	-9878
▁घ्याय	-9879
▁तीसरी	-9880
▁पन्नास	-9881
▁नामांकन	-9882
▁विदेशों	-9883
▁वेंकैया	-9884
▁इब्राहीम	-9885
▁दर्जेदार	-9886
▁बँकेच्या	-9887
▁राष्ट्रे	-9888
▁श्रीलंके	-9889
▁इस्राएलचे	-9890
80	-9891
मला	-9892
वने	-9893
िन्	-9894
पद्ध	-9895
िज्म	-9896
▁इंच	-9897
▁काठ	-9898
▁घोड	-9899
▁ठंड	-9900
▁पान	-9901
ग्रहण	-9902
▁अराम	-9903
▁द्वे	-9904
▁एवढेच	-9905
▁केलेस	-9906
▁गोल्ड	-9907
▁तटबंदी	-9908
▁नागपूर	-9909
▁शब्बाथ	-9910
▁अरेबिया	-9911
▁बुद्धिम	-9912
▁मर्यादा	-9913
▁मेगावॅट	-9914
▁वारंवार	-9915
▁माणसाच्या	-9916
▁मध्यप्रदेश	-9917
um	-9918
एसई	-9919
क्ल	-9920
नार	-9921
▁69	-9922
▁मठ	-9923
णाली	-9924
▁मोट	-9925
▁लुट	-9926
▁लूट	-9927
▁वेध	-9928
कृष्ण	-9929
जमेंट	-9930
ध्याय	-9931
ाराची	-9932
▁एकदम	-9933
▁पैरा	-9934
▁फलों	-9935
ांवरील	-9936
▁चूर्ण	-9937
▁तुकडे	-9938
▁दोपहर	-9939
▁मागास	-9940
ंत्रिकी	-9941
▁दाखवला	-9942
▁पेड़ों	-9943
▁सच्चाई	-9944
▁आजूबाजू	-9945
▁आश्वस्त	-9946
▁मीट्रिक	-9947
▁पोखरियाल	-9948
▁माहितीपट	-9949
▁गुंतवणूकी	-9950
▁व्यापारिक	-9951
▁कुटुंबांना	-9952
▁सिद्धांतों	-9953
▁यांच्यातल्या	-9954
▁रुपयांपर्यंत	-9955
▁वाढविण्यासाठी	-9956
RI	-9957
पॅ	-9958
यम	-9959
राण	-9960
साम	-9961
▁वल	-9962
▁अजी	-9963
▁कडे	-9964
▁खते	-9965
▁जतन	-9966
▁पशू	-9967
वृत्त	-9968
▁कन्व	-9969
▁घाला	-9970
▁रेखा	-9971
▁लेगा	-9972
कडच्या	-9973
▁असावी	-9974
▁गेहूं	-9975
▁घेतील	-9976
▁अनिश्चित	-9977
▁तुझ्याकडे	-9978
gt	-9979
फि	-9980
ैट	-9981
शंक	-9982
▁51	-9983
▁54	-9984
▁उघ	-9985
▁ऑप	-9986
▁रज	-9987
क्को	-9988
▁दीव	-9989
▁वसु	-9990
▁हर्	-9991
▁अशोक	-9992
▁कीटा	-9993
▁चाला	-9994
▁जुने	-9995
▁ठरले	-9996
▁पद्म	-9997
▁पीटर	-9998
▁किताब	-9999
▁ध्येय	-10000
वणाऱ्या	-10001
▁लवकरात	-10002
▁सदियों	-10003
▁उल्लंघन	-10004
▁कराराचा	-10005
▁निकायों	-10006
▁पूर्तता	-10007
▁मुखर्जी	-10008
▁योजनेची	-10009
▁ज्यादातर	-10010
▁वर्षांचा	-10011
▁मूर्तियों	-10012
▁सुरुवातीला	-10013
RD	-10014
स्थळ	-10015
्विक	-10016
▁2.5	-10017
▁पवन	-10018
▁फां	-10019
▁आरटी	-10020
▁खींच	-10021
▁गहरे	-10022
▁जीने	-10023
▁पाता	-10024
▁भागि	-10025
▁मन्द	-10026
▁लेखी	-10027
साव्या	-10028
▁निवडक	-10029
▁हेल्प	-10030
▁ज्योति	-10031
▁तज्ज्ञ	-10032
▁इक्विटी	-10033
▁देशांचे	-10034
▁सांगतात	-10035
▁पक्षियों	-10036
▁कारकिर्दी	-10037
▁प्रयागराज	-10038
▁साक्षीदार	-10039
▁अंमलबजावणीसाठी	-10040
PM	-10041
मू	-10042
जना	-10043
हिर	-10044
▁64	-10045
▁२५	-10046
निटी	-10047
बिंद	-10048
संगत	-10049
ातले	-10050
▁खंभ	-10051
▁डॉक	-10052
वायचे	-10053
स्टेट	-10054
▁लगाए	-10055
▁दयालु	-10056
▁मुद्द	-10057
▁याकडे	-10058
▁किल्ला	-10059
▁गारंटी	-10060
▁हेक्टे	-10061
▁सामरिया	-10062
▁परिभाषित	-10063
▁रुग्णांना	-10064
▁द्राक्षारस	-10065
▁राष्ट्राला	-10066
▁जिल्ह्यांमध्ये	-10067
ँक	-10068
चु	-10069
ळले	-10070
ेटर	-10071
▁01	-10072
▁ऑल	-10073
▁५०	-10074
तिहा	-10075
्रोन	-10076
▁कहान	-10077
▁आंखों	-10078
▁आवाजा	-10079
▁झांकी	-10080
▁तोंडा	-10081
▁बनाकर	-10082
▁संपदा	-10083
▁अग्रिम	-10084
▁लागतील	-10085
▁क्लस्टर	-10086
▁डीआरडीओ	-10087
▁विधियों	-10088
▁संवेदना	-10089
▁विद्यालय	-10090
PC	-10091
किट	-10092
लाप	-10093
वीय	-10094
शिंग	-10095
▁120	-10096
▁तणा	-10097
▁भूख	-10098
▁लहर	-10099
द्वीप	-10100
▁औषधा	-10101
▁कहने	-10102
▁दासी	-10103
▁दिशे	-10104
▁दौरे	-10105
▁नीला	-10106
▁येहू	-10107
▁लाता	-10108
बिलिटी	-10109
मंत्रा	-10110
▁उद्भव	-10111
▁ग्रॅम	-10112
▁चौधरी	-10113
▁दिव्य	-10114
▁पूछता	-10115
▁बचाया	-10116
▁रांची	-10117
▁लोखंड	-10118
▁वेगळा	-10119
स्टिक्स	-10120
▁क्रमशः	-10121
▁यानंतर	-10122
▁सुशासन	-10123
▁साहाय्य	-10124
▁केंद्रीत	-10125
35	-10126
पल	-10127
रज	-10128
त्स	-10129
पुट	-10130
रीश	-10131
▁अक	-10132
नशील	-10133
स्पे	-10134
ूहळू	-10135
▁खाई	-10136
▁गहन	-10137
▁बिछ	-10138
▁फोकस	-10139
▁बैठा	-10140
पुत्रा	-10141
▁आवंटन	-10142
▁यजमान	-10143
▁खोल्या	-10144
▁गिर्या	-10145
▁मेघालय	-10146
▁सचिवों	-10147
▁हळूहळू	-10148
▁पाण्याचा	-10149
▁संस्थापक	-10150
▁हेक्टेयर	-10151
▁पारदर्शकता	-10152
गोर	-10153
नाल	-10154
िटर	-10155
माची	-10156
र्डर	-10157
सवें	-10158
▁चळव	-10159
▁थोर	-10160
▁सोर	-10161
वर्तन	-10162
▁कमीत	-10163
▁मापद	-10164
▁रमेश	-10165
▁राधा	-10166
▁किशोर	-10167
▁जमाती	-10168
▁पोटात	-10169
▁वल्लभ	-10170
▁शिष्ट	-10171
प्रणाली	-10172
▁जुड़ाव	-10173
▁ठेवावे	-10174
▁मन्दिर	-10175
▁संवादा	-10176
▁सर्विस	-10177
▁सिलेंडर	-10178
▁उत्पादनात	-10179
▁सरकारकडून	-10180
▁सुधारण्यासाठी	-10181
गि	-10182
टाई	-10183
▁2.	-10184
▁नऊ	-10185
ंपार	-10186
क्के	-10187
चकित	-10188
पुरम	-10189
वेतन	-10190
ation	-10191
▁डीडी	-10192
▁नकवी	-10193
▁नफरत	-10194
▁भरून	-10195
▁मौका	-10196
ऱ्यावर	-10197
▁उपवास	-10198
▁उर्जे	-10199
▁जानने	-10200
▁दरबार	-10201
▁बळकटी	-10202
▁संकलन	-10203
▁दिलासा	-10204
▁नीतिगत	-10205
▁बाप्ति	-10206
▁रिकवरी	-10207
▁वर्षभर	-10208
▁केल्यावर	-10209
▁येशूच्या	-10210
▁सर्वांचा	-10211
▁मिळालेल्या	-10212
▁ईशान्येकडील	-10213
▁राखण्यासाठी	-10214
et	-10215
झील	-10216
ट्टा	-10217
▁आधा	-10218
▁बिख	-10219
▁लेट	-10220
कड़ों	-10221
बोर्ड	-10222
▁अदोम	-10223
▁आहेच	-10224
▁कागद	-10225
▁कॉमन	-10226
▁घेईल	-10227
▁जबरद	-10228
▁शिशू	-10229
ण्याला	-10230
▁जवाहर	-10231
▁द्वेष	-10232
▁वडीला	-10233
▁आदरणीय	-10234
▁भूमीवर	-10235
▁मिळावे	-10236
▁योद्धा	-10237
▁घेण्यास	-10238
▁प्रत्या	-10239
▁विद्यमान	-10240
▁निधनाबद्दल	-10241
ES	-10242
हल	-10243
▁m	-10244
जील	-10245
▁-2	-10246
कर्त	-10247
पैथी	-10248
रखाव	-10249
▁जखम	-10250
▁देय	-10251
▁सोम	-10252
तातील	-10253
▁अपरा	-10254
▁पध्द	-10255
▁योआब	-10256
▁सुगम	-10257
▁उजागर	-10258
▁मतदार	-10259
▁व्हाल	-10260
▁चांगुल	-10261
▁ब्यूरो	-10262
▁मिश्रा	-10263
▁रोमांचक	-10264
▁कायाकल्प	-10265
▁संस्थेने	-10266
▁दृष्टिकोन	-10267
▁प्रस्तावाला	-10268
;&	-10269
कॉम	-10270
जली	-10271
▁तिल	-10272
▁पडत	-10273
▁वाड	-10274
सरकार	-10275
स्तेर	-10276
▁घमंड	-10277
▁बाला	-10278
▁मवेश	-10279
▁सवलत	-10280
▁सींग	-10281
माध्यम	-10282
संरचना	-10283
ामध्ये	-10284
▁ट्रेड	-10285
▁लाकडा	-10286
▁श्रेण	-10287
नावश्यक	-10288
▁एस्तेर	-10289
▁प्रजनन	-10290
▁मंत्रि	-10291
▁मणिपूर	-10292
▁लढ्यात	-10293
▁वर्षीच्या	-10294
▁सशक्तीकरण	-10295
▁महत्त्वाचा	-10296
▁प्रत्येकाने	-10297
▁परमेश्वराकडून	-10298
कधी	-10299
ताई	-10300
ेंब	-10301
▁अठ	-10302
डीएस	-10303
पश्च	-10304
स्तक	-10305
हनीय	-10306
▁पश्	-10307
▁मैल	-10308
ंपैकी	-10309
▁उन्म	-10310
▁पाळा	-10311
▁रूसी	-10312
▁सोना	-10313
▁आवडते	-10314
▁इंटेल	-10315
▁कनाडा	-10316
▁दुश्म	-10317
▁पेशाब	-10318
▁प्रात	-10319
▁शुध्द	-10320
▁शेकेल	-10321
▁शैतान	-10322
▁सौंदर	-10323
▁असूनही	-10324
▁यूनानी	-10325
ेप्रमाणे	-10326
▁निराकरण	-10327
▁संसर्गा	-10328
▁स्वप्ने	-10329
▁असणार्या	-10330
▁नियमांचे	-10331
▁संघटनेच्या	-10332
em	-10333
३०	-10334
आया	-10335
थिल	-10336
नाक	-10337
रात	-10338
▁डु	-10339
▁दम	-10340
वतील	-10341
ैसूर	-10342
ॉर्ट	-10343
▁उदर	-10344
▁ताज	-10345
▁सिख	-10346
ल्कुल	-10347
▁खड़ी	-10348
▁डाळी	-10349
▁माने	-10350
▁साला	-10351
कृत्ये	-10352
नामुळे	-10353
ांसमोर	-10354
▁शोधून	-10355
▁दानीएल	-10356
▁नबियों	-10357
▁प्रथमच	-10358
▁इत्यादि	-10359
▁परेशानी	-10360
▁मलेशिया	-10361
▁वन्यजीव	-10362
▁पाण्याचे	-10363
▁वेंटिलेटर	-10364
▁लोकतांत्रिक	-10365
▁व्यापारियों	-10366
▁अर्थसंकल्पात	-10367
:-	-10368
AM	-10369
ana	-10370
वडा	-10371
चाही	-10372
जिकल	-10373
▁उन्	-10374
▁लाओ	-10375
▁हाड	-10376
क्सीन	-10377
▁चौथे	-10378
▁सीआर	-10379
▁आमतौर	-10380
▁टिकाऊ	-10381
▁डालते	-10382
▁बेथेल	-10383
▁मौल्य	-10384
▁रखेगा	-10385
▁विहार	-10386
▁बहुतेक	-10387
▁साक्षर	-10388
्यापासून	-10389
▁अनुमोदन	-10390
▁गतिविधि	-10391
▁तेव्हाच	-10392
▁बिल्कुल	-10393
▁महिलाएं	-10394
▁मेंढपाळ	-10395
▁यूनिवर्	-10396
▁शिकायतों	-10397
▁गावांमध्ये	-10398
▁प्रतिबंधित	-10399
▁मंत्रिमंडलीय	-10400
11	-10401
ुस	-10402
जान	-10403
माम	-10404
वटी	-10405
देवी	-10406
ब्बी	-10407
श्मन	-10408
▁खिड	-10409
▁लंग	-10410
चालित	-10411
शिल्प	-10412
▁डरते	-10413
▁देरी	-10414
▁फिक्	-10415
▁यकृत	-10416
▁रुचि	-10417
▁संकु	-10418
ंपारिक	-10419
▁भाषेत	-10420
▁शौर्य	-10421
▁जाणारे	-10422
▁दुश्मन	-10423
▁देणारी	-10424
▁निघाले	-10425
▁विनम्र	-10426
▁आनंदाने	-10427
▁आल्यावर	-10428
▁करोड़ों	-10429
▁बहुतांश	-10430
▁सातव्या	-10431
▁तोपर्यंत	-10432
▁माझ्याशी	-10433
▁विषयांवर	-10434
▁रुग्णांच्या	-10435
समु	-10436
्टा	-10437
▁वक	-10438
रीया	-10439
विदा	-10440
▁एनि	-10441
▁तभी	-10442
▁रुक	-10443
▁२००	-10444
फार्म	-10445
व्यों	-10446
▁आएगी	-10447
▁घातक	-10448
▁भरुन	-10449
▁लोहे	-10450
▁विना	-10451
▁आक्रो	-10452
▁नियमा	-10453
▁स्तूप	-10454
▁स्पेस	-10455
▁मापदंड	-10456
▁परिकल्प	-10457
▁आतंकवादी	-10458
▁क्रमवारी	-10459
▁डोक्यावर	-10460
▁निवेशकों	-10461
▁हड्डियों	-10462
▁मालवाहतूक	-10463
षे	-10464
ुश	-10465
ईसी	-10466
ढाई	-10467
नास	-10468
श्त	-10469
▁११	-10470
ज्जा	-10471
पुरा	-10472
▁चिं	-10473
▁मुर	-10474
▁वेल	-10475
च्छिक	-10476
द्यपि	-10477
शिक्ष	-10478
▁इसील	-10479
▁क्लब	-10480
▁लगने	-10481
▁वरून	-10482
ार्‍या	-10483
▁MSMEs	-10484
▁उपाहार	-10485
▁जाएंगी	-10486
▁रामनाथ	-10487
▁विचारा	-10488
▁संकटात	-10489
▁समाजात	-10490
▁पंचायती	-10491
▁शहरातील	-10492
▁शिफारशी	-10493
▁सर्वांग	-10494
▁अस्तित्व	-10495
▁सेवेसाठी	-10496
▁अस्तित्वात	-10497
नं	-10498
▁१४	-10499
चेरी	-10500
▁इम्	-10501
▁छोर	-10502
▁रोप	-10503
▁आचरण	-10504
▁आयाम	-10505
▁कैदी	-10506
▁खोला	-10507
▁चंडी	-10508
▁रुंद	-10509
विल्या	-10510
▁धक्का	-10511
▁बिंदु	-10512
▁लावला	-10513
▁हामान	-10514
▁निकलने	-10515
▁निपटान	-10516
▁उर्वरित	-10517
▁कॉलेजों	-10518
▁क्रिकेट	-10519
▁प्रचलित	-10520
▁नियुक्ती	-10521
▁प्रलंबित	-10522
▁मौल्यवान	-10523
▁सीएसआयआर	-10524
▁आव्हानांचा	-10525
▁पृथ्वीवरील	-10526
▁राजकुमारों	-10527
▁प्रजासत्ताक	-10528
गाई	-10529
ठिका	-10530
मिया	-10531
र्ति	-10532
वाडी	-10533
सचिव	-10534
▁जड़	-10535
▁झुक	-10536
▁ठरा	-10537
▁हाट	-10538
सोबतच	-10539
▁डिवी	-10540
▁देखे	-10541
▁नोडल	-10542
▁यासह	-10543
▁राखी	-10544
▁घातला	-10545
▁राहणे	-10546
▁अवार्ड	-10547
▁दोगुना	-10548
▁मृतकों	-10549
▁वेदीवर	-10550
▁हेक्टर	-10551
▁दीवारों	-10552
▁प्रमाणित	-10553
▁शहराच्या	-10554
▁रुग्णालये	-10555
▁स्थलांतरित	-10556
बले	-10557
▁57	-10558
विणे	-10559
शंकर	-10560
ातला	-10561
िसिन	-10562
▁आंग	-10563
▁घाव	-10564
▁छाप	-10565
▁बीत	-10566
ब्बास	-10567
्रामक	-10568
▁कमान	-10569
▁गड़ब	-10570
▁ठहरा	-10571
▁डाउन	-10572
▁तुरु	-10573
▁पाहु	-10574
▁सूचक	-10575
▁हिवा	-10576
इंडिया	-10577
▁गलिया	-10578
▁घातले	-10579
▁नवोन्	-10580
▁विशाख	-10581
▁साधने	-10582
▁इथेनॉल	-10583
▁कृतज्ञ	-10584
▁यहोशवा	-10585
▁विनिमय	-10586
▁विभाजन	-10587
▁व्यस्त	-10588
▁सहजपणे	-10589
साठीच्या	-10590
▁मेलेल्या	-10591
▁प्रक्रिये	-10592
▁बिन्यामीन	-10593
▁बाप्तिस्मा	-10594
ीत	-10595
ंगल	-10596
चाप	-10597
फ्र	-10598
वडी	-10599
साड	-10600
म्मत	-10601
सीएस	-10602
हेरी	-10603
▁ढाल	-10604
▁पिढ	-10605
▁बाघ	-10606
प्रथम	-10607
मच्या	-10608
▁अश्व	-10609
▁बपति	-10610
▁शर्त	-10611
▁अल्सर	-10612
▁आराखड	-10613
▁ओलांड	-10614
▁खोलने	-10615
▁सत्तर	-10616
▁ह्याच	-10617
▁इसीलिए	-10618
▁यद्यपि	-10619
▁रखरखाव	-10620
▁सहयोगी	-10621
▁सातवें	-10622
▁सुरळीत	-10623
▁अफ्रीकी	-10624
▁गर्भाशय	-10625
▁शरीराला	-10626
▁दुश्मनों	-10627
▁पडलेल्या	-10628
▁प्रत्येकी	-10629
ूष	-10630
सेज	-10631
जाति	-10632
ेंडा	-10633
▁घुस	-10634
▁चतु	-10635
क्टिव	-10636
▁जलसा	-10637
▁तारण	-10638
▁ताला	-10639
▁रैंक	-10640
▁लखनऊ	-10641
▁लिखे	-10642
▁सोचा	-10643
बाबतीत	-10644
▁नवजात	-10645
▁बरामद	-10646
▁स्नेह	-10647
ड़कियों	-10648
▁दिनांक	-10649
▁दिवसां	-10650
▁भाषणात	-10651
▁शिल्लक	-10652
▁सिन्हा	-10653
▁ट्रेनें	-10654
▁मुस्लिम	-10655
▁अवसंरचना	-10656
▁विकसनशील	-10657
▁संपर्कात	-10658
▁सेवानिवृ	-10659
▁प्रयत्नशील	-10660
-6	-10661
om	-10662
रस	-10663
खीम	-10664
▁रव	-10665
आईबी	-10666
मेरे	-10667
वारा	-10668
▁अवै	-10669
▁कहे	-10670
▁कॅन	-10671
▁पैन	-10672
▁फेर	-10673
▁रसद	-10674
▁घडून	-10675
▁याता	-10676
▁लगाई	-10677
▁उपनगर	-10678
▁कनानी	-10679
▁पित्त	-10680
▁भंडार	-10681
▁आक्रोश	-10682
▁दरवाजा	-10683
▁पाहिला	-10684
▁मरम्मत	-10685
▁राजकोष	-10686
▁टेलीफोन	-10687
▁लोकसभेत	-10688
▁विशाखाप	-10689
▁प्रादुर्	-10690
▁पारंपारिक	-10691
▁राजमार्गों	-10692
EA	-10693
एआर	-10694
ैंप	-10695
ंदगी	-10696
दक्ष	-10697
नेही	-10698
विया	-10699
▁अंद	-10700
▁गाज	-10701
▁बेर	-10702
मुंबई	-10703
ित्रा	-10704
▁टीबी	-10705
▁दारा	-10706
▁पडून	-10707
▁बल्ब	-10708
▁मजुर	-10709
▁हाथी	-10710
कुमारी	-10711
गाच्या	-10712
▁उच्चा	-10713
▁कानों	-10714
▁चालले	-10715
▁माउंट	-10716
▁शिथिल	-10717
▁सांभा	-10718
▁प्लांट	-10719
▁सुध्दा	-10720
▁काळातील	-10721
▁मेगावाट	-10722
▁दौऱ्यावर	-10723
▁व्यासपीठ	-10724
▁उपाध्यक्ष	-10725
▁त्याच्याशी	-10726
ंसक	-10727
तोस	-10728
नेल	-10729
बाग	-10730
▁अ‍	-10731
जनों	-10732
णायक	-10733
न्सी	-10734
म्बे	-10735
सबका	-10736
▁चलन	-10737
▁पिय	-10738
▁यरी	-10739
▁हरि	-10740
▁2011	-10741
▁उकसा	-10742
▁उतना	-10743
▁पांड	-10744
▁भावन	-10745
▁वाटप	-10746
▁सीधा	-10747
▁अजनबी	-10748
▁बाशान	-10749
▁अब्बास	-10750
▁आढळतात	-10751
▁कामाला	-10752
▁वृत्ती	-10753
▁पोहोचली	-10754
▁यातायात	-10755
▁शिक्षित	-10756
▁करण्याला	-10757
▁मानदंडों	-10758
▁दिल्लीतील	-10759
▁अन्यजातियों	-10760
इक	-10761
ळवळ	-10762
ंगात	-10763
नाशक	-10764
रीशस	-10765
शियन	-10766
▁तिन	-10767
▁पदा	-10768
▁भीम	-10769
▁सूट	-10770
इसेंस	-10771
▁कॉफी	-10772
▁पडता	-10773
▁पदों	-10774
▁म्यू	-10775
▁सद्य	-10776
नेस्को	-10777
ऱ्याने	-10778
▁पड़ने	-10779
▁वेगळी	-10780
▁पेट्रो	-10781
▁बैठकों	-10782
▁भांडवल	-10783
▁हाताने	-10784
विलेल्या	-10785
▁जलाशयों	-10786
▁दर्शकों	-10787
▁फिल्में	-10788
▁संख्येत	-10789
▁ह्यांना	-10790
▁यहोशाफाट	-10791
▁विकासाचा	-10792
▁नियमितपणे	-10793
▁जीवनसत्त्व	-10794
▁प्रावधानों	-10795
▁अभियांत्रिकी	-10796
अब	-10797
नॉ	-10798
गंज	-10799
हेज	-10800
ौती	-10801
▁अंश	-10802
▁जसा	-10803
▁वाय	-10804
नादेश	-10805
ोलिया	-10806
▁अवैध	-10807
▁आवंट	-10808
▁कळले	-10809
▁नसून	-10810
▁योशी	-10811
▁चारही	-10812
▁पेरिस	-10813
▁यातील	-10814
▁हवेली	-10815
▁अखंडता	-10816
▁देणारा	-10817
▁लष्करी	-10818
▁रक्तदाब	-10819
▁विशेषकर	-10820
▁स्थापने	-10821
▁घेण्याचे	-10822
▁दावीदाला	-10823
▁संकल्पने	-10824
▁प्रतिस्पर्धी	-10825
Mo	-10826
दक	-10827
मास	-10828
वेन	-10829
ान्	-10830
ोना	-10831
▁41	-10832
▁73	-10833
इट्स	-10834
▁आसन	-10835
▁इथं	-10836
▁जरु	-10837
▁देण	-10838
▁फरक	-10839
▁वाइ	-10840
▁सेन	-10841
वणारे	-10842
▁5000	-10843
▁अंगा	-10844
▁इसरो	-10845
▁किला	-10846
▁नम्र	-10847
▁रॉयल	-10848
▁आश्रम	-10849
▁इतिहा	-10850
▁इश्मा	-10851
▁डिस्ट	-10852
▁बांबू	-10853
▁बोललो	-10854
▁मारुन	-10855
▁रूपात	-10856
▁लावली	-10857
▁अर्पणे	-10858
▁गार्डन	-10859
▁दुर्गा	-10860
▁नर्मदा	-10861
▁ह्याची	-10862
▁रुपांतर	-10863
▁समुदाया	-10864
▁सेंट्रल	-10865
▁इन्स्टिट	-10866
▁उपाध्याय	-10867
▁निर्णायक	-10868
▁सर्वप्रथम	-10869
▁कार्यक्रमाच्या	-10870
70	-10871
पेट	-10872
शाह	-10873
िरे	-10874
▁यर	-10875
पाणी	-10876
▁आशे	-10877
▁कंब	-10878
▁जां	-10879
आयामी	-10880
▁उपरो	-10881
▁बिगर	-10882
▁मीखा	-10883
▁रिका	-10884
▁स्की	-10885
▁हानी	-10886
स्वामी	-10887
▁अडथळा	-10888
▁अदालत	-10889
▁अद्या	-10890
▁तत्वा	-10891
▁बारीक	-10892
▁स्ट्र	-10893
▁ट्विटर	-10894
▁इंटेलिज	-10895
▁देखेंगे	-10896
ण्यासारखे	-10897
▁कामासाठी	-10898
▁प्रांतात	-10899
▁होईपर्यंत	-10900
▁झाल्याबद्दल	-10901
▁प्रकल्पांचा	-10902
एमए	-10903
जीत	-10904
कारण	-10905
पीआर	-10906
वावी	-10907
सर्व	-10908
िबात	-10909
▁गड्	-10910
▁रेश	-10911
▁१००	-10912
▁घडेल	-10913
▁पोटा	-10914
▁मालक	-10915
▁वकील	-10916
व्व्या	-10917
▁अडथळे	-10918
▁कितनी	-10919
▁डिजिट	-10920
▁भुवने	-10921
▁मंडली	-10922
ापूर्वी	-10923
▁अलिकडे	-10924
▁जनतेचे	-10925
▁जाताना	-10926
▁पहुंचे	-10927
▁आधारभूत	-10928
▁उपरोक्त	-10929
▁क्षयरोग	-10930
▁महामंडळ	-10931
▁लाइसेंस	-10932
▁संस्कार	-10933
▁स्वीकृत	-10934
▁घेण्याचा	-10935
▁जगातल्या	-10936
▁निवडणुकी	-10937
▁बपतिस्मा	-10938
▁इस्राएलला	-10939
▁श्रेणियों	-10940
▁प्रक्रियेत	-10941
▁प्रयत्नांची	-10942
22	-10943
45	-10944
ya	-10945
ईस	-10946
तोल	-10947
पंच	-10948
ेंच	-10949
तीवर	-10950
नाया	-10951
▁800	-10952
▁टोळ	-10953
▁बगी	-10954
▁रवी	-10955
▁अकाल	-10956
▁अनुप	-10957
▁इकडे	-10958
▁कॉरप	-10959
▁पैदल	-10960
▁भेजे	-10961
▁वीणा	-10962
▁सेतु	-10963
▁हेतू	-10964
डीआरएफ	-10965
सीएमआर	-10966
▁फ्रेम	-10967
▁बेंगल	-10968
ंपेक्षा	-10969
▁चिल्ला	-10970
▁संबद्ध	-10971
▁नियोजित	-10972
▁बौद्धिक	-10973
▁म्हणतील	-10974
▁नवाचारों	-10975
▁मनुष्याला	-10976
▁उद्यमशीलता	-10977
▁कामगारांना	-10978
▁देवाणघेवाण	-10979
▁देशभरातल्या	-10980
▁माझ्याबरोबर	-10981
▁अर्थव्यवस्थाओं	-10982
डले	-10983
▁एथ	-10984
▁जौ	-10985
ग्या	-10986
विंग	-10987
सीना	-10988
▁गहू	-10989
▁टोल	-10990
▁रोल	-10991
▁लॉक	-10992
बत्ती	-10993
▁जटिल	-10994
▁बद्ध	-10995
▁ब्ले	-10996
▁एलीया	-10997
▁कैडेट	-10998
▁घनिष्ठ	-10999
▁भ्रष्ट	-11000
▁संसदेत	-11001
▁अनुपालन	-11002
▁देशवासी	-11003
▁योजनाएं	-11004
▁वास्तुक	-11005
▁वैक्सीन	-11006
▁नुकत्याच	-11007
ण्यापूर्वी	-11008
▁कठिनाइयों	-11009
▁दर्जाच्या	-11010
▁उच्चस्तरीय	-11011
▁कार्यकर्ता	-11012
वं	-11013
तां	-11014
सुर	-11015
▁59	-11016
तारा	-11017
हाचे	-11018
▁उठो	-11019
▁ठाक	-11020
▁मते	-11021
▁शोर	-11022
▁सतह	-11023
▁हनु	-11024
नियां	-11025
रोबाम	-11026
▁Prad	-11027
▁उधार	-11028
▁एनटी	-11029
▁खांब	-11030
▁मोड़	-11031
▁स्पी	-11032
संशोधन	-11033
▁2016,	-11034
▁तिकिट	-11035
▁जणांना	-11036
▁डाव्या	-11037
▁सांत्व	-11038
▁मेंढ्या	-11039
▁कायदेशीर	-11040
▁तैयारियों	-11041
▁योजनेमुळे	-11042
▁व्यवसायों	-11043
▁घराण्यातील	-11044
▁निर्देशांक	-11045
▁वैशिष्ट्ये	-11046
▁कॉन्फ्रेंसिंग	-11047
NC	-11048
नम	-11049
कोळ	-11050
बॉल	-11051
ंहून	-11052
▁घाय	-11053
▁थां	-11054
▁फेड	-11055
▁मेह	-11056
ऊर्जा	-11057
वलेले	-11058
▁1500	-11059
▁एवढी	-11060
▁गुर्	-11061
▁जादू	-11062
▁पडतो	-11063
▁फ्री	-11064
▁बुरे	-11065
▁शेजा	-11066
▁महोदय	-11067
▁साढ़े	-11068
▁सारखे	-11069
▁आवंटित	-11070
▁उत्तरी	-11071
▁नाहीतर	-11072
▁पुरेसे	-11073
▁माताओं	-11074
▁वेगळ्या	-11075
▁गरीबांना	-11076
▁परंपराओं	-11077
▁मिसरच्या	-11078
▁आपातकालीन	-11079
▁आमच्याकडे	-11080
▁कराराच्या	-11081
▁त्यापेक्षा	-11082
▁आश्चर्यचकित	-11083
▁जिल्ह्यातील	-11084
▁मैत्रीपूर्ण	-11085
▁प्रतिबंधात्मक	-11086
दह	-11087
.05	-11088
ईएस	-11089
डीन	-11090
बिर	-11091
लीत	-11092
▁99	-11093
▁रक	-11094
▁सज	-11095
▁ठळक	-11096
▁बिग	-11097
चाताप	-11098
ोरिया	-11099
▁आरंभ	-11100
▁इंजे	-11101
▁ईर्ष	-11102
▁गणेश	-11103
▁गुरू	-11104
▁ग्रे	-11105
▁मोहन	-11106
▁सुदृ	-11107
दृष्टी	-11108
▁काटेक	-11109
▁क्रॉस	-11110
▁भिन्न	-11111
▁भ्रमण	-11112
▁दाँतों	-11113
▁परंपरे	-11114
▁बिहारी	-11115
▁चिंताओं	-11116
▁महिलाएँ	-11117
▁अब्राहाम	-11118
▁दर्शनमंड	-11119
▁विजेताओं	-11120
▁उद्दिष्टे	-11121
▁मंदिरातील	-11122
▁भारतातल्या	-11123
▁सार्वभौमिक	-11124
▁महाराष्ट्रात	-11125
▁मळ	-11126
डीबी	-11127
वावा	-11128
▁अवय	-11129
▁आका	-11130
▁खपत	-11131
▁फीट	-11132
▁वाव	-11133
▁हेर	-11134
▁गुला	-11135
▁फाटक	-11136
▁भावी	-11137
▁स्वे	-11138
▁हमले	-11139
ंकय्या	-11140
▁एकमेव	-11141
▁करशील	-11142
▁कोर्स	-11143
▁तीनों	-11144
▁वस्ती	-11145
▁सॅनिट	-11146
▁स्टेड	-11147
त्कालीन	-11148
▁उत्पन्	-11149
▁अवधारणा	-11150
▁अस्वस्थ	-11151
▁गर्भनिर	-11152
▁पर्वतार	-11153
▁प्रेषित	-11154
▁योजनेचे	-11155
▁सैकड़ों	-11156
▁बंदरगाहों	-11157
▁त्यांच्यात	-11158
▁दावीदाच्या	-11159
▁प्रदेशातल्या	-11160
26	-11161
le	-11162
ॅन	-11163
...	-11164
ड़न	-11165
म्य	-11166
▁3.	-11167
▁68	-11168
▁जप	-11169
▁पश	-11170
लीला	-11171
▁कडक	-11172
▁लेब	-11173
ानाचा	-11174
िकारक	-11175
▁अर्क	-11176
▁आराध	-11177
▁कर्ण	-11178
▁थायल	-11179
▁फेसब	-11180
▁बुरी	-11181
▁सूरत	-11182
▁जयपुर	-11183
▁जीतने	-11184
▁निकले	-11185
▁निर्ज	-11186
▁वाढला	-11187
▁वाढून	-11188
▁उन्नयन	-11189
▁करेंगी	-11190
▁राजाचा	-11191
▁सभागृह	-11192
▁तेंव्हा	-11193
▁सावधानी	-11194
▁सुधारणे	-11195
▁स्थितीत	-11196
▁स्वर्गा	-11197
▁कारीगरों	-11198
▁यहोयाकीम	-11199
▁लाखांहून	-11200
▁चांगुलपणा	-11201
MT	-11202
जळ	-11203
ॅक	-11204
कीत	-11205
गती	-11206
▁66	-11207
▁77	-11208
▁सल	-11209
ताने	-11210
व्यव	-11211
▁बला	-11212
▁मीठ	-11213
ईलैंड	-11214
ॉप्टर	-11215
▁आयटी	-11216
▁इराण	-11217
▁कुशी	-11218
▁जवळच	-11219
▁तुकड	-11220
▁समजू	-11221
▁उपस्थ	-11222
▁ऑक्सि	-11223
▁चक्कर	-11224
▁टीमों	-11225
▁ट्वीट	-11226
▁लेफ्ट	-11227
▁वाढले	-11228
▁अद्याप	-11229
▁निश्चय	-11230
▁मूत्रा	-11231
▁मॉरीशस	-11232
▁स्तरों	-11233
▁स्वरुप	-11234
्यांपैकी	-11235
▁आदमियों	-11236
▁टीकाकरण	-11237
▁फायद्या	-11238
▁सरकारें	-11239
▁मंदिराचे	-11240
▁भुवनेश्वर	-11241
▁वातावरणात	-11242
▁सुविधांचा	-11243
▁कुटुंबातील	-11244
▁योजनांच्या	-11245
▁गेल्यावर्षी	-11246
EC	-11247
बुल	-11248
लीक	-11249
सिस	-11250
▁नल	-11251
▁अतः	-11252
▁ऑयल	-11253
▁गमा	-11254
कार्य	-11255
तांचा	-11256
▁ऊपरी	-11257
▁तिमा	-11258
▁थर्म	-11259
▁दाँत	-11260
▁धनुष	-11261
▁फारच	-11262
▁संयम	-11263
▁साँस	-11264
प्रकाश	-11265
▁खाँसी	-11266
▁पड़ोस	-11267
▁बढ़ना	-11268
▁यूरोप	-11269
▁रहेगी	-11270
▁समजेल	-11271
णामध्ये	-11272
▁अजिबात	-11273
▁अपनाया	-11274
▁फैलाने	-11275
▁मिळावा	-11276
▁योजनेत	-11277
▁सर्जरी	-11278
▁बोलावले	-11279
▁स्वच्छा	-11280
▁पाण्याची	-11281
▁स्थानावर	-11282
▁काळापासून	-11283
▁याप्रसंगी	-11284
▁प्लेटफार्म	-11285
▁लोकांबरोबर	-11286
▁प्रकल्पाच्या	-11287
▁टक्क्यांपर्यंत	-11288
यो	-11289
र्र	-11290
ूती	-11291
▁जड	-11292
ताची	-11293
वर्ग	-11294
▁कवच	-11295
▁दाब	-11296
▁भोज	-11297
▁सुष	-11298
धानिक	-11299
निटाइ	-11300
▁एकड़	-11301
▁एसाव	-11302
▁चलना	-11303
▁चैनल	-11304
▁थेंब	-11305
▁नग्न	-11306
▁पाडा	-11307
▁पायी	-11308
▁बिगा	-11309
▁ब्रे	-11310
करणाचे	-11311
▁मेंदू	-11312
▁स्वर्	-11313
▁डिवीजन	-11314
▁स्वभाव	-11315
▁गणतंत्र	-11316
▁निकालने	-11317
▁योजनेला	-11318
▁पश्चाताप	-11319
▁वाढवण्यात	-11320
▁स्तरावरील	-11321
▁अर्थमंत्री	-11322
▁दिवसांच्या	-11323
▁संयुक्तपणे	-11324
24	-11325
ol	-11326
तिन	-11327
संघ	-11328
ित्य	-11329
▁एकर	-11330
▁छान	-11331
▁सत्	-11332
▁हाक	-11333
टानगर	-11334
▁कॉम्	-11335
▁टीवी	-11336
▁फैले	-11337
▁योसे	-11338
▁शिका	-11339
▁आनन्द	-11340
▁नॉर्थ	-11341
▁सुचार	-11342
▁आराधना	-11343
▁डोळ्या	-11344
▁तिथल्या	-11345
▁पर्यायी	-11346
▁शैक्षिक	-11347
▁निष्पक्ष	-11348
▁संस्थांनी	-11349
▁विश्वासघात	-11350
▁उत्तरप्रदेश	-11351
▁त्याच्यासाठी	-11352
झी	-11353
ईएम	-11354
होन	-11355
िंट	-11356
▁ईज	-11357
कर्म	-11358
देखो	-11359
▁धाड	-11360
▁नीट	-11361
▁शंक	-11362
▁शिज	-11363
ेंट्स	-11364
▁1.25	-11365
▁नगरा	-11366
▁उज्जी	-11367
▁नद्या	-11368
▁पाहणी	-11369
▁म्हणे	-11370
▁लष्कर	-11371
▁साइंस	-11372
▁साजरी	-11373
▁अंधकार	-11374
▁गिरावट	-11375
▁पाएंगे	-11376
▁पूछताछ	-11377
▁बोलतात	-11378
▁यहुवेह	-11379
▁राजाची	-11380
▁हिज्की	-11381
कांपासून	-11382
▁इस्रायल	-11383
▁द्यायचे	-11384
▁बाजूंनी	-11385
▁वित्तपोषण	-11386
▁सहकार्याला	-11387
▁लोकांपर्यंत	-11388
छो	-11389
म्बर	-11390
▁175	-11391
▁मैन	-11392
विध्य	-11393
ित्ती	-11394
▁अगली	-11395
▁एड्स	-11396
▁एनएच	-11397
▁क्रा	-11398
▁खेलो	-11399
▁टाइम	-11400
▁तिथि	-11401
▁रसाय	-11402
▁शंकर	-11403
ंबद्दल	-11404
कश्मीर	-11405
्वेस्ट	-11406
▁आच्छा	-11407
▁आश्रय	-11408
▁कापणी	-11409
▁खेतों	-11410
▁गिबोन	-11411
▁बर्फा	-11412
▁वाटून	-11413
▁50,000	-11414
▁इन्हें	-11415
▁ईपीएफओ	-11416
▁पुरेसा	-11417
▁सुलभता	-11418
▁अनुभवों	-11419
▁उमेदवार	-11420
▁जवळच्या	-11421
▁समावेशन	-11422
▁सुक्ष्म	-11423
▁राजकोषीय	-11424
▁सीएसआईआर	-11425
▁सैन्याने	-11426
▁संभावनाओं	-11427
▁कल्याणकारी	-11428
▁उद्योजकांना	-11429
ॉय	-11430
दून	-11431
लंड	-11432
षधी	-11433
ैया	-11434
सीआई	-11435
▁अंज	-11436
▁छिप	-11437
▁पैग	-11438
्वारे	-11439
▁जुना	-11440
▁पायल	-11441
▁पॉलि	-11442
▁बांस	-11443
▁यकीन	-11444
▁शादी	-11445
जीएसटी	-11446
ूंच्या	-11447
▁तरलता	-11448
▁दिलों	-11449
▁धोरणे	-11450
▁बनवून	-11451
▁मिजोर	-11452
▁विलाप	-11453
▁श्रेय	-11454
▁साहसी	-11455
नेजमेंट	-11456
▁इच्छुक	-11457
▁उच्चतम	-11458
▁खुल्या	-11459
▁दृढ़ता	-11460
▁निराशा	-11461
▁प्रिंट	-11462
▁महासंघ	-11463
▁ईर्ष्या	-11464
▁प्रोटीन	-11465
▁भेटायला	-11466
▁रक्तदान	-11467
▁सराहनीय	-11468
▁हाइड्रो	-11469
ण्यापासून	-11470
वण्याच्या	-11471
▁भागिदारी	-11472
▁प्रोग्राम	-11473
आणि	-11474
पेश	-11475
▁गज	-11476
▁रऊ	-11477
क्टी	-11478
सीएफ	-11479
▁गोड	-11480
▁झलक	-11481
▁सेक	-11482
कोविड	-11483
▁एसटी	-11484
▁कोटा	-11485
▁चिड़	-11486
▁फ्ला	-11487
▁बनता	-11488
▁यावी	-11489
▁सुकर	-11490
▁नक्वी	-11491
▁साहेब	-11492
▁हॉटेल	-11493
▁अमृतसर	-11494
▁निकासी	-11495
▁फेसबुक	-11496
▁बढ़ाना	-11497
▁वातावर	-11498
▁कंट्रोल	-11499
▁कार्यात	-11500
▁दक्षिणी	-11501
▁दिवसांत	-11502
▁बहुतायत	-11503
▁निर्णयों	-11504
▁निश्चितच	-11505
▁आपत्कालीन	-11506
▁इस्त्राएल	-11507
▁सिफारिशों	-11508
▁खाद्यपदार्थ	-11509
▁राज्यातल्या	-11510
.00	-11511
बेर	-11512
▁तथ	-11513
ndia	-11514
साचे	-11515
▁उभी	-11516
▁छीन	-11517
▁डाग	-11518
▁मुळ	-11519
▁विण	-11520
भागीय	-11521
ूर्ती	-11522
▁ईरान	-11523
▁कडून	-11524
▁ग्या	-11525
▁महाल	-11526
▁लिये	-11527
▁वल्ह	-11528
▁शेयर	-11529
▁होवू	-11530
▁चाळीस	-11531
▁ढाँचे	-11532
▁नौकरी	-11533
▁पाहात	-11534
▁फॉर्म	-11535
▁बैठका	-11536
▁माइया	-11537
▁विवाह	-11538
लयाच्या	-11539
▁अभिव्य	-11540
▁एमएसपी	-11541
▁किरकोळ	-11542
▁सहभागा	-11543
▁कारागिर	-11544
▁सव्वाशे	-11545
▁तुम्हांस	-11546
▁स्वर्गीय	-11547
▁होणार्या	-11548
▁इंडस्ट्री	-11549
▁सक्षमीकरण	-11550
▁पूर्वजांना	-11551
▁संस्थात्मक	-11552
अम	-11553
फळ	-11554
ळत	-11555
्प	-11556
उत्	-11557
म्ह	-11558
वाज	-11559
सुख	-11560
गंगा	-11561
ुक्त	-11562
▁घटन	-11563
▁झेप	-11564
▁फुल	-11565
शुल्क	-11566
▁आतील	-11567
▁एनएफ	-11568
▁ऐकली	-11569
▁कब्ज	-11570
▁काढा	-11571
▁खाती	-11572
▁गुहे	-11573
▁जखमी	-11574
▁जनगण	-11575
▁जिवे	-11576
▁डाऊन	-11577
▁शिमी	-11578
ंपासून	-11579
ल्डिंग	-11580
▁जितके	-11581
▁निकला	-11582
▁विस्म	-11583
▁अध्याय	-11584
▁आयएनएस	-11585
▁चढ़ाया	-11586
▁टुकड़े	-11587
▁फिक्की	-11588
▁मिजोरम	-11589
▁म्हणता	-11590
▁युरिया	-11591
▁सूर्या	-11592
▁जेंव्हा	-11593
▁वक्तव्य	-11594
▁स्थैर्य	-11595
▁दिनाच्या	-11596
▁दीर्घकाळ	-11597
▁कार्यवाही	-11598
▁देशामध्ये	-11599
▁विश्रांती	-11600
▁प्रकल्पाचे	-11601
▁संवेदनशीलता	-11602
▁प्रकल्पांच्या	-11603
23	-11604
कं	-11605
लाह	-11606
वाढ	-11607
श्न	-11608
हेम	-11609
ंकडे	-11610
रेपी	-11611
लेशन	-11612
शाचा	-11613
ियोप	-11614
▁आणू	-11615
▁कात	-11616
▁पिघ	-11617
▁बाप	-11618
▁अभिय	-11619
▁ओसाड	-11620
▁यशया	-11621
▁होवो	-11622
रुपयोग	-11623
▁चलाने	-11624
▁जागरु	-11625
▁डॉक्ट	-11626
▁तितके	-11627
▁बकाया	-11628
▁मारली	-11629
▁वधस्त	-11630
▁प्रशंस	-11631
▁टिप्पणी	-11632
▁वैविध्य	-11633
▁करदाताओं	-11634
▁केदारनाथ	-11635
▁पर्यावरणीय	-11636
▁भविष्यासाठी	-11637
▁निवृत्तीवेतन	-11638
निय	-11639
मिर	-11640
ूला	-11641
ेकर	-11642
जोशी	-11643
नेंस	-11644
▁जलन	-11645
▁शकू	-11646
India	-11647
ंगाने	-11648
▁ऊँचे	-11649
▁कॉन्	-11650
▁क्रे	-11651
▁पणजी	-11652
▁पाते	-11653
▁बलाम	-11654
▁श्या	-11655
▁चार्ट	-11656
▁ड्रोन	-11657
▁तेवढे	-11658
▁आचार्य	-11659
▁बर्बाद	-11660
▁योसेफा	-11661
▁शिपिंग	-11662
▁शिफारस	-11663
▁संहिता	-11664
▁अन्नधान	-11665
▁आघाडीवर	-11666
▁काटेकोर	-11667
▁राजनीति	-11668
▁विद्रोह	-11669
▁संदेशात	-11670
▁अनुमोदित	-11671
▁चित्रपटात	-11672
▁प्रतिष्ठा	-11673
▁संकटाच्या	-11674
▁समितीच्या	-11675
▁समुद्रकिन	-11676
▁सर्वांगीण	-11677
▁यांसारख्या	-11678
▁पहिल्यांदाच	-11679
▁मिळवण्यासाठी	-11680
▁n	-11681
.03	-11682
ईआर	-11683
ब्स	-11684
मोल	-11685
म्भ	-11686
ताचे	-11687
शियम	-11688
▁इंध	-11689
▁कटी	-11690
▁निग	-11691
▁फर्	-11692
▁मसु	-11693
▁मस्	-11694
▁रिफ	-11695
केमिक	-11696
क्यों	-11697
▁अल्ट	-11698
▁छत्र	-11699
▁नबूक	-11700
▁नमुन	-11701
▁बनते	-11702
▁मर्द	-11703
▁तुरही	-11704
▁दायरे	-11705
▁दिसले	-11706
▁पडतात	-11707
▁भरपाई	-11708
▁रेडिओ	-11709
▁स्राव	-11710
▁घरातील	-11711
▁चक्रवात	-11712
▁पुनर्जी	-11713
▁आमच्यावर	-11714
▁गर्मजोशी	-11715
▁वैशिष्ट्य	-11716
▁शास्त्रीय	-11717
▁आरोग्यसेवा	-11718
▁कार्यालयों	-11719
▁टक्क्यांनी	-11720
▁मनुष्याच्या	-11721
▁लॉकडाऊनच्या	-11722
▁प्रयोगशालाएँ	-11723
संध	-11724
सां	-11725
▁थड	-11726
केयर	-11727
स्थल	-11728
▁नकद	-11729
▁पहच	-11730
▁युव	-11731
▁लोट	-11732
ल्‍या	-11733
िक्षा	-11734
्यवधी	-11735
▁अतुल	-11736
▁दिनी	-11737
▁पडते	-11738
▁माते	-11739
▁यूके	-11740
▁सीजन	-11741
केंद्र	-11742
▁इनकार	-11743
▁तिकडे	-11744
▁परिचय	-11745
▁पशुधन	-11746
▁प्रीम	-11747
▁लवचिक	-11748
▁विलंब	-11749
▁हड्डी	-11750
▁जागृती	-11751
▁मार्शल	-11752
▁रिश्ते	-11753
▁वितरीत	-11754
▁उत्तरात	-11755
▁टुकड़ों	-11756
▁यारोबाम	-11757
▁लाभकारी	-11758
▁असामान्य	-11759
▁कोट्यवधी	-11760
▁विषाणूचा	-11761
▁संस्थेचे	-11762
▁स्वीकारला	-11763
▁मानवपुत्रा	-11764
▁विशेषज्ञता	-11765
47	-11766
st	-11767
टू	-11768
ईपी	-11769
तना	-11770
▁नह	-11771
▁मश	-11772
गेशन	-11773
पीटी	-11774
फेसर	-11775
▁700	-11776
▁आति	-11777
▁ज़े	-11778
▁पाण	-11779
▁शिल	-11780
ल्तान	-11781
िलिंग	-11782
▁ICMR	-11783
▁खतना	-11784
▁खाणे	-11785
▁चकित	-11786
▁चौथी	-11787
▁रोया	-11788
▁वाटे	-11789
▁खायला	-11790
▁घूमने	-11791
▁जैतून	-11792
▁तिसरा	-11793
▁मजबूर	-11794
▁सार्क	-11795
▁सुंता	-11796
▁एजेंडा	-11797
▁साम्रा	-11798
▁सीतारा	-11799
▁स्टैंड	-11800
▁आवाजाही	-11801
▁वल्हांड	-11802
▁संभालने	-11803
▁सुझावों	-11804
▁सूचकांक	-11805
▁कांग्रेस	-11806
▁चुकीच्या	-11807
▁याद्वारे	-11808
▁स्टेडियम	-11809
▁दृष्टान्त	-11810
▁मिसरमध्ये	-11811
▁स्वतःच्या	-11812
▁खिलाड़ियों	-11813
▁भारतीयांना	-11814
▁संस्थांमध्ये	-11815
▁अध्यक्षतेखालील	-11816
बाह	-11817
सलत	-11818
सलम	-11819
▁(3	-11820
सीआय	-11821
▁कैल	-11822
▁भजन	-11823
▁भां	-11824
▁रिझ	-11825
▁रूम	-11826
▁हरा	-11827
लीवरी	-11828
▁गिबा	-11829
▁गुदा	-11830
▁दीपक	-11831
▁देशी	-11832
▁फिलि	-11833
▁भरने	-11834
▁वर्क	-11835
▁विनो	-11836
▁सोडा	-11837
कासाठी	-11838
▁खेळाड	-11839
▁टेकडी	-11840
▁पंधरा	-11841
▁पडतील	-11842
▁फास्ट	-11843
▁भक्ति	-11844
▁मागित	-11845
▁सूत्र	-11846
▁सोसाय	-11847
त्तियों	-11848
▁अमूल्य	-11849
▁परिधान	-11850
▁शहाणपण	-11851
▁अनंतकाळ	-11852
▁पराक्रम	-11853
▁बहुआयामी	-11854
▁आत्म्याने	-11855
▁प्रयत्नांमुळे	-11856
▁प्रशिक्षणार्थी	-11857
AC	-11858
PF	-11859
खू	-11860
चौ	-11861
कूड	-11862
श्क	-11863
इयाँ	-11864
एसएम	-11865
ऱ्हा	-11866
वरही	-11867
्याथ	-11868
▁आवृ	-11869
▁छुट	-11870
▁तटर	-11871
▁बोर	-11872
▁लेक	-11873
ंद्रह	-11874
प्लिक	-11875
यांची	-11876
▁इंडि	-11877
▁एसोस	-11878
▁कपूर	-11879
▁द्वि	-11880
▁बोले	-11881
▁मजूर	-11882
▁वेळो	-11883
▁जाहिर	-11884
▁तस्वी	-11885
▁सिंधु	-11886
▁सेवेत	-11887
प्राप्त	-11888
▁कपड़ों	-11889
▁जोरदार	-11890
▁बढ़ाता	-11891
▁रिजर्व	-11892
▁व्यापा	-11893
▁तटरक्षक	-11894
▁रक्तचाप	-11895
▁विक्रमी	-11896
▁अधिग्रहण	-11897
▁दुर्लक्ष	-11898
▁दुसरीकडे	-11899
▁बेंगलुरु	-11900
▁येण्याची	-11901
▁स्वरुपात	-11902
▁राहण्याची	-11903
▁लॉजिस्टिक	-11904
▁स्वयंसेवक	-11905
▁पुरस्कारों	-11906
▁यरुशलेममधील	-11907
▁प्राथमिकताओं	-11908
▁पंतप्रधानांकडून	-11909
he	-11910
नाय	-11911
▁He	-11912
चेही	-11913
जीवन	-11914
बीसी	-11915
लमेल	-11916
वस्त	-11917
▁उखा	-11918
▁कीम	-11919
▁टाइ	-11920
▁ढेर	-11921
▁दमन	-11922
▁रसो	-11923
▁वगळ	-11924
harat	-11925
िकल्स	-11926
▁जगन्	-11927
▁नंदा	-11928
▁स्पा	-11929
प्रमाण	-11930
▁उचलून	-11931
▁केलीस	-11932
▁गिरने	-11933
▁जोखीम	-11934
▁प्लेग	-11935
▁बायका	-11936
▁लाकूड	-11937
▁सामील	-11938
ौपचारिक	-11939
▁कमांडर	-11940
▁दिलेला	-11941
▁पंक्ति	-11942
▁ब्रांड	-11943
▁मजबूती	-11944
▁वाढवून	-11945
▁विमानन	-11946
▁असतानाच	-11947
▁उन्मूलन	-11948
▁चुनावों	-11949
▁दीनदयाल	-11950
▁ब्राजील	-11951
▁रामेश्व	-11952
▁विद्वान	-11953
्यांपासून	-11954
▁पुस्तकात	-11955
▁सर्वांची	-11956
▁प्रत्येकजण	-11957
▁व्यक्तीच्या	-11958
▁ख्रिस्ताच्या	-11959
iii	-11960
▁CB	-11961
▁आं	-11962
▁ऑड	-11963
▁दै	-11964
▁हन	-11965
स्पा	-11966
▁ओबे	-11967
▁चुप	-11968
▁दमा	-11969
▁नवर	-11970
▁बटा	-11971
मुळेच	-11972
▁आयरन	-11973
▁लाखा	-11974
▁सूखे	-11975
▁स्तो	-11976
र्निंग	-11977
▁एक्सच	-11978
▁काढला	-11979
▁गोल्फ	-11980
▁ठहरने	-11981
▁धारणा	-11982
▁नमुने	-11983
▁नेमले	-11984
▁पड़ती	-11985
▁मोकळे	-11986
व्यवस्थ	-11987
▁कीमतों	-11988
▁कुठेही	-11989
▁गवर्नर	-11990
▁तालमेल	-11991
▁देशाने	-11992
▁परतावा	-11993
▁वापरले	-11994
▁सिखाया	-11995
▁सुचारू	-11996
▁अभिनेता	-11997
▁गावातील	-11998
▁पसरलेले	-11999
▁वयाच्या	-12000
▁सर्वत्र	-12001
▁प्रस्थान	-12002
▁प्रोफेसर	-12003
▁सब्जियों	-12004
▁हिज्कीया	-12005
▁पुनर्जीवित	-12006
▁असल्याबद्दल	-12007
▁शिष्यवृत्ती	-12008
▁सामर्थ्यवान	-12009
▁खालीलप्रमाणे	-12010
▁लाभार्थ्यांना	-12011
85	-12012
थो	-12013
टोक	-12014
बोट	-12015
महल	-12016
समय	-12017
ंतून	-12018
एफएफ	-12019
नाशी	-12020
▁एनी	-12021
▁झाक	-12022
▁नसा	-12023
▁पतर	-12024
▁फेफ	-12025
▁बंड	-12026
▁बुक	-12027
▁यमु	-12028
▁शमा	-12029
तर्फे	-12030
▁आणला	-12031
▁गणना	-12032
▁गिना	-12033
▁डिजी	-12034
▁दौड़	-12035
▁बिला	-12036
▁बोतल	-12037
▁भिंत	-12038
▁युनि	-12039
▁रकमे	-12040
▁लेखक	-12041
▁वॉटर	-12042
▁शेकड	-12043
▁आठवणी	-12044
▁नगरों	-12045
▁पक्षा	-12046
▁मुद्र	-12047
स्ट्रॉल	-12048
▁अंदमान	-12049
▁आईआईटी	-12050
▁कीटाणु	-12051
▁डीएसटी	-12052
▁पंद्रह	-12053
▁महावीर	-12054
▁शासकीय	-12055
▁अर्थाने	-12056
▁निर्मात	-12057
▁महाराजा	-12058
▁संग्राम	-12059
▁सगळीकडे	-12060
▁पहुंचाने	-12061
▁प्रमुखों	-12062
▁लोकांकडे	-12063
▁खर्चाच्या	-12064
▁तुमच्याशी	-12065
▁व्यंकय्या	-12066
▁क्षेत्राचा	-12067
▁यूनिवर्सिटी	-12068
NA	-12069
ँव	-12070
esh	-12071
एचओ	-12072
कें	-12073
खूप	-12074
टीओ	-12075
डीच	-12076
तले	-12077
सरण	-12078
▁CS	-12079
▁४०	-12080
क्की	-12081
रीने	-12082
शांत	-12083
▁काँ	-12084
▁खेड	-12085
▁गधे	-12086
▁मेम	-12087
▁मेश	-12088
▁साई	-12089
खेरीज	-12090
सलमेर	-12091
▁3000	-12092
▁अनुष	-12093
▁असुर	-12094
▁तारा	-12095
▁तोळे	-12096
▁बदले	-12097
▁ब्लू	-12098
▁वैसा	-12099
▁हायड	-12100
▁हेही	-12101
▁अर्धा	-12102
▁आशंका	-12103
▁क्रूर	-12104
▁ठरतील	-12105
▁तत्वे	-12106
▁पीडित	-12107
स्तियों	-12108
▁एनर्जी	-12109
▁घोड़ों	-12110
▁भीतीने	-12111
▁मंचावर	-12112
▁मिळावी	-12113
▁येताना	-12114
▁2015-16	-12115
▁आमंत्रण	-12116
▁चंडीगढ़	-12117
▁मंडळाने	-12118
▁मजदूरों	-12119
▁सदस्यता	-12120
▁पहुँचाया	-12121
▁प्राप्ती	-12122
ण्याबरोबरच	-12123
▁अनौपचारिक	-12124
▁त्यामुळेच	-12125
▁पूर्वेकडील	-12126
21	-12127
देह	-12128
ऱ्ह	-12129
लाइ	-12130
संच	-12131
ंशिक	-12132
क्ले	-12133
गाचे	-12134
मिशन	-12135
रेटर	-12136
▁धीर	-12137
▁भोग	-12138
▁मनी	-12139
▁शके	-12140
सैनिक	-12141
▁2008	-12142
▁2012	-12143
▁पहलू	-12144
▁बरीच	-12145
▁रिंग	-12146
▁लिला	-12147
ळेबंदी	-12148
▁Covid	-12149
▁ग्लेश	-12150
▁बोलले	-12151
▁रक्षक	-12152
पणाच्या	-12153
▁आत्मान	-12154
▁दिखाने	-12155
▁दिवाळख	-12156
▁निवारक	-12157
▁बद्धको	-12158
▁स्टोरे	-12159
▁अलिकडेच	-12160
▁आत्माओं	-12161
▁उपनगरों	-12162
▁जगन्नाथ	-12163
▁डिलीवरी	-12164
▁निर्बंध	-12165
▁परिणामी	-12166
▁पर्वतीय	-12167
▁प्रशांत	-12168
▁राहणारे	-12169
▁सुल्तान	-12170
▁स्पोर्ट	-12171
▁तालाबंदी	-12172
▁पुरस्कृत	-12173
▁वेळोवेळी	-12174
▁शास्त्री	-12175
▁सुवार्ता	-12176
▁गोष्टींची	-12177
▁आपल्यासाठी	-12178
▁लॉजिस्टिक्स	-12179
▁सुविधांच्या	-12180
▁स्टार्टअप्स	-12181
▁सहकार्याच्या	-12182
.25	-12183
निस	-12184
मेज	-12185
यरल	-12186
यूर	-12187
िपल	-12188
ोजा	-12189
ोही	-12190
धनुष	-12191
▁खाट	-12192
▁जशी	-12193
▁ठरू	-12194
द्रीय	-12195
वाहित	-12196
विद्य	-12197
▁एकमत	-12198
▁एदोम	-12199
▁करों	-12200
▁खंभे	-12201
▁घटने	-12202
▁जरिए	-12203
▁ज्वर	-12204
▁ठरला	-12205
▁तशीच	-12206
▁नीले	-12207
▁परेड	-12208
▁रत्न	-12209
▁वाचव	-12210
▁स्टे	-12211
▁योद्ध	-12212
▁पुनर्र	-12213
▁पॉलिसी	-12214
▁अंबेडकर	-12215
▁कौशल्या	-12216
▁खालच्या	-12217
▁तातडीने	-12218
▁पोहोचले	-12219
▁शुरुआती	-12220
▁ग्राहकों	-12221
▁यहोशवाने	-12222
▁इंटेलिजेंस	-12223
▁सर्वसाधारण	-12224
▁देशांदरम्यान	-12225
MC	-12226
उप	-12227
ईने	-12228
फेल	-12229
▁76	-12230
टाने	-12231
डीजी	-12232
िद्र	-12233
▁ओरड	-12234
▁किल	-12235
▁पंप	-12236
▁लैब	-12237
▁वया	-12238
▁शार	-12239
▁सैर	-12240
▁इनाम	-12241
▁ठरते	-12242
▁बँका	-12243
▁मोटा	-12244
▁रोने	-12245
▁सांड	-12246
▁सेतू	-12247
पद्धती	-12248
व्हर्न	-12249
▁इस्रो	-12250
▁उभरती	-12251
▁चळवळी	-12252
▁तृतीय	-12253
▁परमेश	-12254
▁पौधों	-12255
▁बड़ों	-12256
▁मर्दख	-12257
▁मानता	-12258
▁सम्रा	-12259
▁हाताळ	-12260
▁अनुबंध	-12261
▁पासवान	-12262
▁प्रायः	-12263
प्लिकेशन	-12264
▁दावीदला	-12265
▁संरक्षक	-12266
▁स्टोरेज	-12267
▁कन्वेंशन	-12268
▁क्षेत्रे	-12269
▁टाळेबंदी	-12270
▁सर्दियों	-12271
▁उपस्थितीत	-12272
▁भागातल्या	-12273
▁भागांमध्ये	-12274
▁सोन्याच्या	-12275
▁पर्यटकांसाठी	-12276
-4	-12277
ऊक	-12278
गमन	-12279
घाट	-12280
पित	-12281
▁‘‘	-12282
नातन	-12283
▁घने	-12284
▁ह्र	-12285
पणाचा	-12286
▁आगरा	-12287
▁नियो	-12288
▁फोटो	-12289
घाच्या	-12290
▁आंखें	-12291
▁इंजिन	-12292
▁इरादा	-12293
▁उद्दी	-12294
▁जागृत	-12295
▁देहरा	-12296
▁फटकार	-12297
▁फूलों	-12298
▁बद्दल	-12299
▁स्नात	-12300
▁खाल्ले	-12301
▁ठेवतात	-12302
▁सामरिक	-12303
▁इतरांना	-12304
▁कानाकोप	-12305
▁जैसलमेर	-12306
▁राहायला	-12307
▁रूपांतर	-12308
बेकिस्तान	-12309
▁तरुणांना	-12310
▁टक्क्यांवर	-12311
▁दुष्कृत्ये	-12312
▁व्यक्तित्व	-12313
▁शस्त्रक्रिय	-12314
▁प्लेटफार्मों	-12315
▁गुणवत्तापूर्ण	-12316
IP	-12317
ठन	-12318
▁बछ	-12319
ट्टर	-12320
णुका	-12321
वर्त	-12322
व्यय	-12323
▁आदत	-12324
▁कॉम	-12325
निवेश	-12326
्यूटर	-12327
▁2024	-12328
▁अचूक	-12329
▁ताबा	-12330
▁दुखी	-12331
▁धरुन	-12332
▁नसतो	-12333
▁माली	-12334
▁यहीं	-12335
▁लायक	-12336
मासाठी	-12337
शबोर्ड	-12338
▁अंजीर	-12339
▁खुजली	-12340
▁दिसेल	-12341
▁बजावत	-12342
▁सरपंच	-12343
▁सांसद	-12344
▁सुनते	-12345
दनेस्सर	-12346
▁अपराधी	-12347
▁मुक्ति	-12348
▁रवांडा	-12349
▁खांद्या	-12350
▁गड़बड़ी	-12351
▁परदेशात	-12352
▁कंपनियां	-12353
▁तलवारीने	-12354
▁पाइपलाइन	-12355
▁यहोशापात	-12356
▁योजनांचा	-12357
▁वल्लभभाई	-12358
▁कर्तव्यों	-12359
▁नौदलाच्या	-12360
▁निमित्ताने	-12361
▁हिंदुस्तान	-12362
▁उम्मीदवारों	-12363
▁प्रकल्पांसाठी	-12364
▁विद्यार्थ्यांनी	-12365
12	-12366
90	-12367
ma	-12368
उल	-12369
ठ्	-12370
आयु	-12371
पाठ	-12372
्लो	-12373
▁कथ	-12374
करणा	-12375
हानी	-12376
▁ठरत	-12377
▁दुध	-12378
▁बनू	-12379
पालिक	-12380
मित्व	-12381
▁ऑप्ट	-12382
▁गिरी	-12383
▁गोरख	-12384
▁घायल	-12385
▁थोडी	-12386
▁दिवे	-12387
▁लाना	-12388
▁घोड़े	-12389
▁जिनका	-12390
▁दूषित	-12391
▁मराठी	-12392
▁वापसी	-12393
▁वैष्ण	-12394
▁सार्थ	-12395
▁सुरवा	-12396
तेनुसार	-12397
निर्देश	-12398
मध्येही	-12399
▁खर्चात	-12400
▁तिन्ही	-12401
▁महादेव	-12402
▁लज्जित	-12403
▁सर्वंक	-12404
▁इश्माएल	-12405
▁मूर्खता	-12406
▁ग्लेशियर	-12407
▁जेणेकरुन	-12408
▁पुनर्वास	-12409
▁पूर्वेला	-12410
▁प्रश्नों	-12411
▁प्राधिकर	-12412
▁राजनैतिक	-12413
▁त्याविषयी	-12414
▁समुदायाला	-12415
▁प्रवाशांना	-12416
▁संरचनात्मक	-12417
▁किलोमीटरच्या	-12418
ोहण	-12419
▁96	-12420
▁डब	-12421
ताचा	-12422
विधा	-12423
▁गरु	-12424
▁तीच	-12425
क्ष्य	-12426
िशियल	-12427
▁अवयव	-12428
▁टेबल	-12429
▁बेहत	-12430
▁साइट	-12431
▁एलिया	-12432
▁कोर्ट	-12433
▁गुलाब	-12434
▁दार्ज	-12435
▁नित्य	-12436
▁प्रसव	-12437
▁ब्रिज	-12438
▁भरभरा	-12439
▁मैसूर	-12440
▁लंबित	-12441
▁शमशोन	-12442
ष्टीकरण	-12443
▁कुपोषण	-12444
▁पाठवून	-12445
▁बांधका	-12446
▁लेबनान	-12447
्यांकडून	-12448
▁आफ्रिका	-12449
▁देवाकडे	-12450
▁नवोन्मे	-12451
▁माणसाचे	-12452
▁सर्वंकष	-12453
▁द्राक्षम	-12454
▁नियुक्ति	-12455
▁सीतारामन	-12456
▁हानिकारक	-12457
▁पुनरुज्जी	-12458
▁स्वयंसेवी	-12459
▁किनारपट्टी	-12460
▁निवडलेल्या	-12461
▁कोरोनावायरस	-12462
▁परिस्थितीचा	-12463
▁सर्वेक्षणात	-12464
▁इन्स्टिट्यूट	-12465
▁शस्त्रक्रिया	-12466
▁सांगितलेल्या	-12467
57	-12468
BI	-12469
GA	-12470
प्स	-12471
सेन	-12472
हूर	-12473
आयएस	-12474
नाथन	-12475
वावर	-12476
शाची	-12477
▁अपघा	-12478
▁एवढा	-12479
▁एसिड	-12480
▁जेके	-12481
▁नियत	-12482
▁रियल	-12483
▁रोते	-12484
▁लोका	-12485
▁वर्च	-12486
▁सदोम	-12487
▁अवलोक	-12488
▁खजाने	-12489
▁गुन्ह	-12490
▁पदभार	-12491
▁पार्व	-12492
▁भागों	-12493
▁महिना	-12494
▁मार्क	-12495
▁श्वेत	-12496
▁अन्याय	-12497
▁आर्टिफ	-12498
▁एलाजार	-12499
▁जुड़ने	-12500
▁नावाची	-12501
▁निविदा	-12502
▁परवाना	-12503
▁येणारा	-12504
▁राहिलो	-12505
▁रेड्डी	-12506
▁विष्णु	-12507
▁अर्थात्	-12508
▁बढ़ाएगा	-12509
▁मांसपेश	-12510
▁मुलांनी	-12511
▁सगळ्यात	-12512
▁गेल्यावर	-12513
▁गौरवशाली	-12514
▁पुरातत्व	-12515
▁वस्तूंचा	-12516
▁अनुषंगाने	-12517
▁दिवाळखोरी	-12518
▁आव्हानांना	-12519
▁कंपन्यांनी	-12520
▁गर्भावस्था	-12521
▁प्रतिबिंबित	-12522
eM	-12523
िको	-12524
ूनी	-12525
▁62	-12526
▁to	-12527
▁धम	-12528
अपने	-12529
बाचा	-12530
▁भंग	-12531
▁मेर	-12532
▁सता	-12533
देशीय	-12534
स्टेक	-12535
▁खाटा	-12536
▁खाणी	-12537
▁गोंध	-12538
▁टाटा	-12539
▁दांत	-12540
▁नंगे	-12541
▁मंगल	-12542
▁रसोई	-12543
▁रोडम	-12544
▁वितर	-12545
▁शर्क	-12546
▁सवयी	-12547
राइटिस	-12548
▁खोजने	-12549
▁जयपूर	-12550
▁पुरवठ	-12551
▁राहता	-12552
▁शेकडो	-12553
▁सुषमा	-12554
कापासून	-12555
द्रीकरण	-12556
रामध्ये	-12557
▁आतिथ्य	-12558
▁आधारीत	-12559
▁गोविंद	-12560
▁जंगलों	-12561
▁जापानी	-12562
▁2014-15	-12563
▁इतिहासात	-12564
▁होमार्पण	-12565
▁राज्यसभेत	-12566
▁सदस्यांनी	-12567
▁नेण्यासाठी	-12568
▁प्रसारमाध्यम	-12569
णम	-12570
’’	-12571
.30	-12572
कोश	-12573
चिन	-12574
चून	-12575
बिट	-12576
षेध	-12577
▁ईद	-12578
▁रौ	-12579
म्मा	-12580
्युर	-12581
▁आइस	-12582
▁आरो	-12583
▁कुं	-12584
▁बकर	-12585
▁सौह	-12586
कारों	-12587
डच्या	-12588
▁ब्लॉ	-12589
▁लेती	-12590
▁अतिथी	-12591
▁एहसास	-12592
▁पंचाय	-12593
▁पोषित	-12594
▁समक्ष	-12595
▁समतोल	-12596
दारांना	-12597
▁अब्दुल	-12598
▁कुंभमे	-12599
▁ग्रामो	-12600
▁जनजाति	-12601
▁जिल्हे	-12602
▁थायलंड	-12603
▁पद्धति	-12604
▁पैगंबर	-12605
▁प्रिंस	-12606
▁भोवताल	-12607
▁युद्धा	-12608
▁वरच्या	-12609
▁अम्मोनी	-12610
▁थाईलैंड	-12611
▁मलेरिया	-12612
▁सुरूवात	-12613
प्रक्रिया	-12614
▁इंजेक्शन	-12615
▁उत्पत्ति	-12616
▁जल्दबाजी	-12617
▁मंदिराची	-12618
▁लड़कियों	-12619
▁प्रभावीपणे	-12620
▁रुग्णाच्या	-12621
▁शोधकर्ताओं	-12622
▁इस्राएलाच्या	-12623
दाह	-12624
बिन	-12625
हाट	-12626
▁गळ	-12627
▁फौ	-12628
एसएल	-12629
▁कळत	-12630
▁थीम	-12631
▁नाल	-12632
▁बनो	-12633
▁बहस	-12634
बुद्ध	-12635
विष्ठ	-12636
वैद्य	-12637
सिफिक	-12638
ापत्र	-12639
्यूटी	-12640
▁कापड	-12641
▁दोहन	-12642
▁नज़र	-12643
▁फंसे	-12644
▁यहुद	-12645
▁यावा	-12646
▁लाइट	-12647
▁शिंग	-12648
▁संगण	-12649
▁सख्त	-12650
▁हाडे	-12651
▁अस्वी	-12652
▁एखादे	-12653
▁कितने	-12654
▁गरिमा	-12655
▁ज्ञात	-12656
▁बाटली	-12657
▁शहाणा	-12658
▁हिरवा	-12659
▁ह्यात	-12660
▁अनुपात	-12661
▁आउटरीच	-12662
▁काळ्या	-12663
▁जनतेने	-12664
▁नारंगी	-12665
▁भाज्या	-12666
▁मुक्ती	-12667
▁वाहिनी	-12668
▁साहसिक	-12669
▁उत्साही	-12670
▁घराच्या	-12671
▁देशातले	-12672
▁ब्राझील	-12673
▁सैनिटाइ	-12674
▁अनुच्छेद	-12675
▁उर्वरकों	-12676
▁कामाच्या	-12677
▁भूमिपूजन	-12678
▁स्वर्गात	-12679
▁करणाऱ्यां	-12680
▁यिर्मयाला	-12681
▁स्त्रियां	-12682
▁परिणामकारक	-12683
▁आरोग्यासाठी	-12684
▁आर्टिफिशियल	-12685
▁काळजीपूर्वक	-12686
▁प्रकल्पांना	-12687
▁प्रयत्नांचे	-12688
AL	-12689
DC	-12690
एगी	-12691
लीम	-12692
वां	-12693
िरण	-12694
ूना	-12695
नाती	-12696
ारों	-12697
ार्स	-12698
्डों	-12699
▁अवर	-12700
▁ऐकत	-12701
▁चिप	-12702
▁त्य	-12703
▁दंत	-12704
▁वाई	-12705
▁सवय	-12706
▁स्‍	-12707
तांचे	-12708
हेरील	-12709
▁इथून	-12710
▁तेही	-12711
▁नायक	-12712
▁वाटर	-12713
▁विफल	-12714
ंगाबाद	-12715
ठिकाणी	-12716
▁कापून	-12717
▁कालेब	-12718
▁कोच्च	-12719
▁तारखे	-12720
▁ध्वनि	-12721
▁पॅरिस	-12722
▁लिहून	-12723
▁हल्के	-12724
ानाच्या	-12725
▁Bharat	-12726
▁गुप्ता	-12727
▁जवानों	-12728
▁दिसतात	-12729
▁दुपारी	-12730
▁वास्तु	-12731
▁शासकों	-12732
▁समारोप	-12733
▁कराराची	-12734
▁ठेवायला	-12735
▁तीव्रता	-12736
▁दायित्व	-12737
▁मेजवानी	-12738
▁लक्षणों	-12739
▁एयरपोर्ट	-12740
▁कृतज्ञता	-12741
▁गांधीनगर	-12742
▁तत्कालीन	-12743
▁मिसरमधून	-12744
▁विज्ञाना	-12745
▁बुजुर्गों	-12746
▁विकासात्मक	-12747
).	-12748
‍य	-12749
रेस	-12750
▁78	-12751
▁इम	-12752
निधी	-12753
प्रद	-12754
भूषण	-12755
याजक	-12756
ळावे	-12757
ोरमा	-12758
्तार	-12759
▁आंत	-12760
▁टेल	-12761
▁दुब	-12762
▁धाम	-12763
▁मिर	-12764
▁मेघ	-12765
▁सील	-12766
▁सेब	-12767
ित्या	-12768
▁चळवळ	-12769
▁ठेवत	-12770
▁प्याय	-12771
▁भेजने	-12772
▁येथेच	-12773
▁वाढतो	-12774
▁वाहिन	-12775
प्लेक्स	-12776
▁खतरनाक	-12777
▁जमिनीत	-12778
▁जोड़ों	-12779
▁दुहेरी	-12780
▁पुरेशी	-12781
▁मूल्ये	-12782
▁मेजबान	-12783
▁अर्ध्या	-12784
▁प्रसूती	-12785
▁मुलांचे	-12786
▁सोसायटी	-12787
▁निर्माते	-12788
▁प्रतिकार	-12789
▁सूचीबद्ध	-12790
▁उपाहारगृह	-12791
▁सीमावर्ती	-12792
▁स्वामित्व	-12793
▁केंद्राच्या	-12794
▁परमेश्वराकडे	-12795
▁परमेश्वरासाठी	-12796
▁करण्यासाठीच्या	-12797
ुम	-12798
.04	-12799
णूक	-12800
फिर	-12801
▁In	-12802
▁बक	-12803
▁१३	-12804
ताली	-12805
हिमा	-12806
़ाइन	-12807
▁उला	-12808
▁दाग	-12809
कर्ते	-12810
वर्धक	-12811
सार्ह	-12812
स्मिक	-12813
हाबाद	-12814
▁अहरो	-12815
▁आर्थ	-12816
▁आवरण	-12817
▁उग्र	-12818
▁तसाच	-12819
▁धरून	-12820
▁फुफ्	-12821
▁हमला	-12822
ूपासून	-12823
▁उखाड़	-12824
▁कटौती	-12825
▁कहावत	-12826
▁कीमती	-12827
▁केलास	-12828
▁चलाया	-12829
▁फाइबर	-12830
▁यायला	-12831
▁युनिट	-12832
▁अंतराल	-12833
▁अवलोकन	-12834
▁पुनर्ग	-12835
▁बाजूने	-12836
▁मदतीची	-12837
▁हनुमान	-12838
्यांमधील	-12839
▁ऑक्सिजन	-12840
▁शतकातील	-12841
▁सेनापती	-12842
▁परिषदेची	-12843
▁प्रसन्नता	-12844
▁राज्यपाला	-12845
▁वास्तुकला	-12846
▁हस्तशिल्प	-12847
▁उपभोक्ताओं	-12848
▁कन्याकुमारी	-12849
▁बुद्धिमत्ता	-12850
▁विश्वासार्ह	-12851
आम	-12852
आल	-12853
एई	-12854
▁i	-12855
-30	-12856
काव	-12857
ड्स	-12858
लीज	-12859
▁लू	-12860
आईएस	-12861
तीचे	-12862
दूरी	-12863
भूति	-12864
रेशन	-12865
ांचल	-12866
▁एरो	-12867
▁गिन	-12868
▁नमा	-12869
.2019	-12870
▁अयोध	-12871
▁आणणे	-12872
▁चोटी	-12873
▁जुनी	-12874
▁बयान	-12875
▁बराच	-12876
▁स्क्	-12877
कार्बन	-12878
▁अध्यय	-12879
▁इतकेच	-12880
▁इनपुट	-12881
▁टाकली	-12882
▁तुकडी	-12883
▁पुतिन	-12884
▁मनसुख	-12885
▁विधेय	-12886
▁एवढ्या	-12887
▁जनादेश	-12888
▁धोरणात	-12889
▁पलीकडे	-12890
▁सीपीएस	-12891
▁कारखाने	-12892
▁मार्गों	-12893
▁रूपरेखा	-12894
▁लचीलापन	-12895
▁विचारात	-12896
▁सांगितलं	-12897
▁एकमेकांशी	-12898
▁स्थितियों	-12899
▁विरुद्धच्या	-12900
29	-12901
74	-12902
ंगळ	-12903
जाम	-12904
तेच	-12905
नाई	-12906
हाई	-12907
▁86	-12908
गुरु	-12909
तशीर	-12910
मानी	-12911
सीजी	-12912
▁अदो	-12913
▁एलि	-12914
▁धरा	-12915
▁फीस	-12916
▁मने	-12917
ंकडून	-12918
तियां	-12919
▁2010	-12920
▁उठून	-12921
▁कपात	-12922
▁खाऊन	-12923
▁पुनः	-12924
▁शंका	-12925
▁स्वय	-12926
कॉमर्स	-12927
ऱ्याचे	-12928
▁खाड़ी	-12929
▁जंगला	-12930
▁निषेध	-12931
▁पियुष	-12932
▁प्रोड	-12933
▁भवनात	-12934
▁मामला	-12935
▁ज्ञानी	-12936
▁नवनवीन	-12937
▁निकलता	-12938
▁बुकिंग	-12939
▁रोडमैप	-12940
▁सेवाएँ	-12941
▁आत्मसात	-12942
▁छुटकारा	-12943
▁जबरदस्त	-12944
▁नातेवाई	-12945
▁न्यायिक	-12946
▁विलक्षण	-12947
▁जोपर्यंत	-12948
▁देहरादून	-12949
▁नवोन्मेष	-12950
▁भूमीपूजन	-12951
▁समितियों	-12952
▁कुटुंबाला	-12953
▁गिर्यारोह	-12954
▁त्याचवेळी	-12955
▁फ्रेमवर्क	-12956
▁बाजारपेठे	-12957
▁सत्याग्रह	-12958
▁क्षेत्राशी	-12959
▁सुरक्षितता	-12960
▁हिस्सेदारी	-12961
▁तुमच्याबरोबर	-12962
-5	-12963
38	-12964
ho	-12965
घो	-12966
नॅ	-12967
ंकी	-12968
ंसह	-12969
थिक	-12970
माना	-12971
मिरल	-12972
▁अजय	-12973
▁ऋतु	-12974
▁सूख	-12975
कीकरण	-12976
वितात	-12977
▁चौबी	-12978
मध्येच	-12979
▁ऊंचाई	-12980
▁किराए	-12981
▁डेव्ह	-12982
▁पायलट	-12983
▁बेकार	-12984
▁भक्ता	-12985
▁सालों	-12986
णापासून	-12987
ेंद्रिय	-12988
▁असणारी	-12989
▁दोस्ती	-12990
▁निकटतम	-12991
▁निष्ठा	-12992
▁पोलियो	-12993
▁बैठकें	-12994
▁कारखाना	-12995
▁कॉरिडॉर	-12996
▁बाबेलचा	-12997
▁महायाजक	-12998
▁मुख्तार	-12999
▁लक्ष्मी	-13000
▁हृदयविक	-13001
▁औरंगाबाद	-13002
▁गर्विष्ठ	-13003
▁मवेशियों	-13004
▁स्थापत्य	-13005
▁परीक्षणों	-13006
▁समारंभाला	-13007
▁नागरिकांचे	-13008
▁लढण्यासाठी	-13009
▁वृत्तचित्र	-13010
▁सद्यस्थिती	-13011
▁ह्यांमध्ये	-13012
▁यांच्यामध्ये	-13013
ED	-13014
PI	-13015
▁v	-13016
फिस	-13017
लिन	-13018
वेद	-13019
हिक	-13020
ानं	-13021
ुशी	-13022
एनएल	-13023
मत्व	-13024
▁कड़	-13025
▁ठाम	-13026
▁पाद	-13027
▁विख	-13028
▁हजर	-13029
▁हळू	-13030
प्रेर	-13031
मुख्य	-13032
यांनी	-13033
▁अडीच	-13034
▁कतार	-13035
▁ठोकर	-13036
▁पतरस	-13037
▁पौधे	-13038
▁बिता	-13039
▁म्हट	-13040
▁होतं	-13041
ळ्याला	-13042
ोन्मुख	-13043
ोरियों	-13044
▁इकोनॉ	-13045
▁कारणे	-13046
▁गड्ढे	-13047
▁ट्राइ	-13048
▁डायरे	-13049
▁तालाब	-13050
▁पहाटे	-13051
▁पाडाव	-13052
▁मसाले	-13053
▁लगाते	-13054
▁इलाकों	-13055
▁उद्यमी	-13056
▁कोच्चि	-13057
▁ज्याची	-13058
▁तैनाती	-13059
▁पकड़ने	-13060
▁पाठवला	-13061
▁पीसीआर	-13062
▁प्रतिर	-13063
▁प्रेमी	-13064
▁राजाचे	-13065
▁सरकारे	-13066
▁मिलेंगे	-13067
▁ट्रैकिंग	-13068
▁निर्धारण	-13069
▁तुझ्याबरोबर	-13070
▁तुमच्यापैकी	-13071
▁प्रकल्पांची	-13072
▁राष्ट्रपतींच्या	-13073
ut	-13074
कॉ	-13075
▁a	-13076
-14	-13077
.07	-13078
शोथ	-13079
िज़	-13080
एँगे	-13081
डीएफ	-13082
रहित	-13083
शेखर	-13084
साला	-13085
हाची	-13086
▁आपस	-13087
▁कूळ	-13088
▁ज्व	-13089
▁डिप	-13090
▁डिफ	-13091
▁दृश	-13092
▁मका	-13093
▁वाक	-13094
▁शनि	-13095
▁सभे	-13096
▁सीए	-13097
ोडिया	-13098
▁अंगण	-13099
▁कांप	-13100
▁गुरे	-13101
▁दरों	-13102
▁बनेल	-13103
▁भाडे	-13104
▁मंडा	-13105
▁रांग	-13106
▁सवार	-13107
▁साहि	-13108
▁सेने	-13109
ण्याने	-13110
▁अंगूर	-13111
▁अशक्य	-13112
▁औषधीय	-13113
▁खातिर	-13114
▁जेम्स	-13115
▁टाकला	-13116
▁ट्राय	-13117
▁पुरूष	-13118
▁भोवती	-13119
▁रहबाम	-13120
▁समझते	-13121
वासियों	-13122
्यांकडे	-13123
▁गिलगाल	-13124
▁चर्चास	-13125
▁छुट्टी	-13126
▁ज्याचे	-13127
▁प्राची	-13128
▁मजदूरी	-13129
▁गोव्यात	-13130
▁ठेवल्या	-13131
▁नागरिका	-13132
▁निर्धार	-13133
▁पश्चिमे	-13134
▁भांडवली	-13135
▁विभागीय	-13136
▁विरूद्ध	-13137
्यांबद्दल	-13138
▁कंप्यूटर	-13139
▁कोशिकाओं	-13140
▁गरिबांना	-13141
▁जवाहरलाल	-13142
▁संस्थाओं	-13143
▁अडकलेल्या	-13144
▁उद्योजकता	-13145
▁किफायतशीर	-13146
▁मुलांसाठी	-13147
▁व्यासपीठा	-13148
▁स्पष्टीकरण	-13149
▁नबूकदनेस्सर	-13150
▁राष्ट्राच्या	-13151
ंफ	-13152
ांट	-13153
ौली	-13154
▁कड	-13155
▁२४	-13156
दिवस	-13157
▁ओली	-13158
▁औरत	-13159
▁कीं	-13160
▁गये	-13161
▁डैन	-13162
▁तळा	-13163
▁बुध	-13164
ेमुळे	-13165
▁गाथा	-13166
▁जताई	-13167
▁जेएन	-13168
▁डिझा	-13169
▁तटों	-13170
▁तलाव	-13171
▁तांब	-13172
▁बाँध	-13173
▁यरदन	-13174
▁संशय	-13175
▁सीएम	-13176
रोजगार	-13177
ऱ्याचा	-13178
ळ्याचे	-13179
ासारखा	-13180
▁अंगों	-13181
▁आस्था	-13182
▁उत्पी	-13183
▁कर्नल	-13184
▁खासकर	-13185
▁अनुकरण	-13186
▁आजारात	-13187
▁करूँगा	-13188
▁फ्रेंच	-13189
▁महानता	-13190
▁मानसून	-13191
▁मालवाह	-13192
▁रिझर्व	-13193
▁सम्राट	-13194
▁अब्राहम	-13195
▁अयोध्या	-13196
▁आकस्मिक	-13197
▁कॉरिडोर	-13198
▁जीवनाचा	-13199
▁डिज़ाइन	-13200
▁दारिद्र	-13201
▁महामहीम	-13202
▁स्तोत्र	-13203
पंतप्रधान	-13204
▁उद्दीष्ट	-13205
▁डोकेदुखी	-13206
▁मानसिकता	-13207
▁यात्रेकर	-13208
▁परिकल्पना	-13209
▁समस्यांवर	-13210
▁सहाय्याने	-13211
▁पुरवण्यासाठी	-13212
▁उत्पादनांच्या	-13213
▁भविष्यद्वक्ता	-13214
27	-13215
SC	-13216
आस	-13217
थल	-13218
ैग	-13219
,20	-13220
ड़स	-13221
िकर	-13222
िशस	-13223
ब्बे	-13224
लयात	-13225
िंटल	-13226
ूंकि	-13227
ॉर्क	-13228
▁कसर	-13229
▁कोन	-13230
▁लिप	-13231
▁सज्	-13232
खालील	-13233
ग्रही	-13234
रूध्द	-13235
स्पॉट	-13236
▁कंधे	-13237
▁क्यू	-13238
▁गंगो	-13239
▁चढाई	-13240
▁देशभ	-13241
▁पैलू	-13242
▁यहोआ	-13243
▁लेखन	-13244
▁कम्यु	-13245
▁खोकला	-13246
▁चूंकि	-13247
▁निचले	-13248
▁पोहों	-13249
▁लगाना	-13250
▁लौटने	-13251
▁समस्त	-13252
▁साजरे	-13253
▁स्कीम	-13254
ंपर्यंत	-13255
▁अड्डों	-13256
▁खरीदने	-13257
▁गतिशील	-13258
▁पड़ेगा	-13259
▁प्रचुर	-13260
▁वाचवले	-13261
▁अनुशासन	-13262
▁अस्थायी	-13263
▁कच्च्या	-13264
▁झाल्यास	-13265
▁प्रशस्त	-13266
▁भावनाओं	-13267
▁मिश्रित	-13268
▁विनियमन	-13269
▁ह्यांचा	-13270
▁ह्यांचे	-13271
्यापर्यंत	-13272
▁पत्नियों	-13273
▁प्रतिरोध	-13274
▁प्रवासात	-13275
▁फायदेमंद	-13276
▁शक्तिमान	-13277
▁सामुग्री	-13278
संदर्भातील	-13279
्यांपर्यंत	-13280
▁आजाराच्या	-13281
▁एखाद्याने	-13282
▁दिवसाच्या	-13283
▁संभावनाएं	-13284
▁उपचारासाठी	-13285
▁पूर्वजांनी	-13286
▁मुख्यमंत्र	-13287
▁ग्रामोद्योग	-13288
▁चुनौतीपूर्ण	-13289
▁पेट्रोकेमिक	-13290
▁दिवसांपूर्वी	-13291
▁l	-13292
ity	-13293
बाय	-13294
बूत	-13295
शाल	-13296
▁चॅ	-13297
एनआर	-13298
कडेच	-13299
गारी	-13300
मनगर	-13301
शाने	-13302
साची	-13303
स्से	-13304
▁आपो	-13305
▁ओवर	-13306
▁गवत	-13307
▁पचम	-13308
▁लम्	-13309
▁हेश	-13310
वाड़ी	-13311
वायचा	-13312
िंग्स	-13313
्याशी	-13314
▁अवघड	-13315
▁खोले	-13316
▁जमले	-13317
▁जळजळ	-13318
▁ताजा	-13319
▁वर्ध	-13320
▁सीढ़	-13321
▁हॅके	-13322
▁हेतु	-13323
वासाठी	-13324
्याकडे	-13325
▁अमिता	-13326
▁इलाके	-13327
▁कातडी	-13328
▁किस्म	-13329
▁गोदाम	-13330
▁जाळून	-13331
▁पाडले	-13332
▁बदलते	-13333
▁मेमोर	-13334
▁संचयी	-13335
▁अंतरिम	-13336
▁अनुभवी	-13337
▁अस्थिर	-13338
▁कठिनाई	-13339
▁करवाया	-13340
▁गुस्सा	-13341
▁नावाचे	-13342
▁सल्लाम	-13343
▁सांगता	-13344
▁अग्रवाल	-13345
▁कारोबार	-13346
▁निपटारा	-13347
▁राजनयिक	-13348
▁समाजाला	-13349
णाऱ्यांना	-13350
▁इन्वेस्ट	-13351
▁निर्जंतु	-13352
▁मूल्यवान	-13353
▁साक्षरता	-13354
▁दुर्भाग्य	-13355
▁मंडळाच्या	-13356
▁महामारीचा	-13357
▁हेल्थकेयर	-13358
▁आयुर्वेदिक	-13359
▁गर्भनिरोधक	-13360
तच	-13361
▁u	-13362
छता	-13363
दाट	-13364
नाइ	-13365
बाज	-13366
▁गै	-13367
क्रा	-13368
दिया	-13369
पिंड	-13370
मापन	-13371
ष्‍ट	-13372
▁कुर	-13373
▁खार	-13374
▁जिम	-13375
▁पथक	-13376
▁बोग	-13377
▁मेद	-13378
▁वक्	-13379
वीकडे	-13380
हारिक	-13381
▁आरडी	-13382
▁आरबी	-13383
▁ऐवजी	-13384
▁खरीफ	-13385
▁चंगा	-13386
▁भवित	-13387
▁यूएस	-13388
▁रहित	-13389
▁लपून	-13390
▁वंदन	-13391
▁वीजा	-13392
▁संगी	-13393
▁स्वै	-13394
00,000	-13395
▁कृत्य	-13396
▁छलांग	-13397
▁झेंडा	-13398
▁पांडे	-13399
▁प्रगत	-13400
▁फेकून	-13401
▁मरारी	-13402
▁शिस्त	-13403
▁शुष्क	-13404
▁शौलने	-13405
▁संताप	-13406
▁स्वार	-13407
क्योंकि	-13408
प्रशांत	-13409
्यावरील	-13410
▁अंडमान	-13411
▁एलएमटी	-13412
▁कुल्लू	-13413
▁केन्या	-13414
▁जागेवर	-13415
प्रमाणात	-13416
विण्याचा	-13417
▁कटीबद्ध	-13418
▁स्रोतों	-13419
▁कायद्यात	-13420
▁प्रभुत्व	-13421
▁स्वचालित	-13422
▁कार्यशाळा	-13423
▁सदस्यांना	-13424
▁गुजरातच्या	-13425
▁स्वर्गातील	-13426
▁सुरक्षेसाठी	-13427
▁करण्याबरोबरच	-13428
NR	-13429
आज	-13430
ंथन	-13431
ज़न	-13432
न्ध	-13433
मयी	-13434
▁NC	-13435
▁पठ	-13436
कुंड	-13437
गुती	-13438
▁अटी	-13439
▁कळप	-13440
▁नोए	-13441
▁पेत	-13442
▁रेग	-13443
क्लेव	-13444
क्षणा	-13445
र्लंड	-13446
ासोबत	-13447
ियमित	-13448
ृष्टी	-13449
▁अनाथ	-13450
▁आयआय	-13451
▁टॉवर	-13452
▁रखती	-13453
▁वरुन	-13454
▁सोलर	-13455
यासाठी	-13456
▁उपकार	-13457
▁घनदाट	-13458
▁तिथून	-13459
▁प्रकर	-13460
▁बर्फ़	-13461
▁राखणे	-13462
▁विपुल	-13463
▁करावेत	-13464
▁ठेवावा	-13465
▁निर्वा	-13466
▁भरलेले	-13467
▁अपडेट्स	-13468
▁आणण्यात	-13469
▁जगासाठी	-13470
▁ट्रान्स	-13471
▁यहोयादा	-13472
▁संसाधने	-13473
▁सुनेंगे	-13474
▁दस्तावेज	-13475
▁समाधानों	-13476
▁सिद्कीया	-13477
▁दाखवण्यात	-13478
▁भावनात्मक	-13479
▁साधारणपणे	-13480
▁पूर्वीच्या	-13481
▁घालण्यासाठी	-13482
▁तंत्रज्ञानाची	-13483
▁महाराष्ट्रातील	-13484
▁भविष्यद्वक्ताओं	-13485
BT	-13486
टि	-13487
ओपी	-13488
बीन	-13489
▁छळ	-13490
▁फड	-13491
अमेर	-13492
पट्ट	-13493
मणूक	-13494
योजन	-13495
स्तव	-13496
▁कस्	-13497
▁तुड	-13498
पोस्ट	-13499
वणारा	-13500
ियर्स	-13501
ोरेंस	-13502
▁इंजन	-13503
▁गायक	-13504
▁टीके	-13505
▁तसंच	-13506
▁पाचन	-13507
▁पातळ	-13508
▁बसले	-13509
▁रिफा	-13510
▁लावा	-13511
▁समजत	-13512
चिकित्	-13513
बांधणी	-13514
▁आपोआप	-13515
▁थर्मल	-13516
▁दाखिल	-13517
▁यरीहो	-13518
▁रुपात	-13519
▁सहानु	-13520
▁सुरंग	-13521
▁अधिवेश	-13522
▁आपदाओं	-13523
▁एकीकडे	-13524
▁एजन्सी	-13525
▁ग्यारह	-13526
▁ग्रंथी	-13527
▁ग्वाही	-13528
▁तपस्या	-13529
▁दोगुनी	-13530
▁व्हिसा	-13531
▁स्कूली	-13532
▁होम्यो	-13533
▁द्वीपों	-13534
▁मुलांची	-13535
▁म्हणावे	-13536
▁समर्थित	-13537
▁करणार्या	-13538
▁पूर्वानु	-13539
▁प्राप्ति	-13540
▁भारताकडे	-13541
▁शरीरातील	-13542
▁संबंधिता	-13543
▁सन्मानित	-13544
▁बद्धकोष्ठ	-13545
▁नागरिकांनी	-13546
▁प्रभावशाली	-13547
▁छात्रवृत्ति	-13548
▁स्वर्गदूतों	-13549
▁अर्थमंत्र्यांनी	-13550
ंबी	-13551
गेट	-13552
डतो	-13553
नरी	-13554
ुआर	-13555
▁क़	-13556
बीएम	-13557
मंडल	-13558
▁अती	-13559
▁एआई	-13560
▁खजु	-13561
▁गाई	-13562
▁चौर	-13563
▁तुट	-13564
▁नीम	-13565
▁नूत	-13566
▁पीस	-13567
▁बघा	-13568
▁बूँ	-13569
▁मॉर	-13570
▁सिग	-13571
▁सुक	-13572
दल्या	-13573
वाड़ा	-13574
ामुळे	-13575
ोपचार	-13576
्यूशन	-13577
▁अखेर	-13578
▁ओबेद	-13579
▁कमाल	-13580
▁चेहर	-13581
▁दिलच	-13582
▁नेतन	-13583
▁भुके	-13584
▁मुगल	-13585
▁मोटे	-13586
▁रथों	-13587
▁रिक्	-13588
,&#39;	-13589
आपल्या	-13590
▁आम्हा	-13591
▁एनिमा	-13592
▁ऑर्डर	-13593
▁कब्जे	-13594
▁कुठली	-13595
▁कॅनडा	-13596
▁जलसाठ	-13597
▁जोडून	-13598
▁नमूना	-13599
▁फ्रंट	-13600
▁बदलून	-13601
▁बाजूस	-13602
▁मारने	-13603
▁योगाभ	-13604
यांसाठी	-13605
▁आनंदित	-13606
▁केव्हा	-13607
▁घरगुती	-13608
▁देवावर	-13609
▁निवडून	-13610
▁पुढारी	-13611
▁सर्किट	-13612
▁देखरेखी	-13613
▁युद्धात	-13614
▁सौहार्द	-13615
▁स्त्रोत	-13616
▁एक्सचेंज	-13617
▁गंगोत्री	-13618
▁दिग्दर्श	-13619
▁नात्याने	-13620
▁म्यूजियम	-13621
▁राज्यांत	-13622
▁विश्वासू	-13623
▁सॅनिटायझ	-13624
▁एखाद्याला	-13625
▁केंद्राचे	-13626
▁त्यापासून	-13627
▁प्रवृत्ति	-13628
▁स्वयंपूर्ण	-13629
▁तेव्हापासून	-13630
37	-13631
46	-13632
यकल	-13633
वलं	-13634
टाइम	-13635
ड्डा	-13636
र्थी	-13637
सीयू	-13638
ापुर	-13639
▁दमण	-13640
▁देह	-13641
▁नॉन	-13642
▁बिर	-13643
▁रक्	-13644
यच्या	-13645
ित्ता	-13646
▁अवधी	-13647
▁अशीच	-13648
▁उठकर	-13649
▁चौदह	-13650
▁ड्रा	-13651
▁बागे	-13652
▁मनमो	-13653
▁मिनी	-13654
▁वचने	-13655
▁वाढू	-13656
▁सखोल	-13657
डीच्या	-13658
▁अटलजी	-13659
▁आढळून	-13660
▁किमती	-13661
▁किसने	-13662
▁चौकशी	-13663
▁भोजना	-13664
▁मनोहर	-13665
▁विकृत	-13666
▁शापित	-13667
▁साहिब	-13668
ंद्वारे	-13669
▁इकट्ठे	-13670
▁दिशेला	-13671
▁नारियल	-13672
▁प्रतीत	-13673
▁फलदायी	-13674
▁योनातन	-13675
▁संयोजन	-13676
▁असल्यास	-13677
▁अहवालात	-13678
▁आरक्षित	-13679
▁तीर्थया	-13680
▁परीक्षे	-13681
▁समन्वित	-13682
▁सांत्वन	-13683
▁एसोसिएशन	-13684
▁कागदपत्र	-13685
▁नेतन्याह	-13686
▁पंचायतों	-13687
▁प्रख्यात	-13688
▁पर्यटनाला	-13689
▁वस्तूंच्या	-13690
▁वास्तविकता	-13691
▁सरोवराच्या	-13692
▁एक्सप्रेसवे	-13693
▁त्यांच्याकडून	-13694
▁पंतप्रधानांची	-13695
ंडे	-13696
लान	-13697
लीफ	-13698
विद	-13699
▁61	-13700
▁ओस	-13701
कुवत	-13702
चीही	-13703
थावर	-13704
दिनी	-13705
नेने	-13706
पुरी	-13707
भूती	-13708
स्फी	-13709
▁खाओ	-13710
▁गुज	-13711
▁तर्	-13712
▁नास	-13713
▁वेढ	-13714
▁व्र	-13715
▁कटाई	-13716
▁केयर	-13717
▁गादी	-13718
▁टेकड	-13719
▁दावे	-13720
▁भाले	-13721
▁वाटू	-13722
▁खिडकी	-13723
▁दिसला	-13724
▁पडणार	-13725
▁प्रदी	-13726
▁वार्ड	-13727
▁स्किल	-13728
▁अन्यथा	-13729
▁कमकुवत	-13730
▁कामाची	-13731
▁खाएंगे	-13732
▁तासांत	-13733
▁पापबलि	-13734
▁आंकड़ों	-13735
▁क्विंटल	-13736
▁ग्रीष्म	-13737
▁ज्यांची	-13738
▁नाकारले	-13739
▁पुण्यति	-13740
▁विपत्ति	-13741
▁शिखरावर	-13742
▁समावेशक	-13743
▁हॅकेथॉन	-13744
▁युरोपियन	-13745
▁आघाडीच्या	-13746
▁पसरलेल्या	-13747
▁यांच्यावर	-13748
▁दार्जिलिंग	-13749
▁देशवासियांना	-13750
▁संकेतस्थळावर	-13751
AF	-13752
प्य	-13753
सेट	-13754
ैंक	-13755
्मण	-13756
▁Go	-13757
नामी	-13758
शाचे	-13759
ौषधी	-13760
▁IIT	-13761
▁अब्	-13762
▁अॅप	-13763
▁कोय	-13764
▁गरो	-13765
▁चाब	-13766
▁मरे	-13767
▁मास	-13768
▁योह	-13769
यॉर्क	-13770
स्तंभ	-13771
▁अनार	-13772
▁अपरि	-13773
▁एक्ट	-13774
▁कचरे	-13775
▁कृपे	-13776
▁केबल	-13777
▁कोसळ	-13778
▁क्षय	-13779
▁जश्न	-13780
▁दलित	-13781
▁पाईप	-13782
▁प्रत	-13783
▁बनली	-13784
▁मिसा	-13785
▁वचना	-13786
संस्था	-13787
▁इस्सा	-13788
▁उलाढा	-13789
▁कट्टर	-13790
▁घातली	-13791
▁घुड़स	-13792
▁जहाजा	-13793
▁तूफान	-13794
▁पट्टी	-13795
▁बहिणी	-13796
▁रूपये	-13797
▁विज्ञ	-13798
▁विध्व	-13799
▁संदेह	-13800
▁साधून	-13801
▁सुलभी	-13802
▁अनेकदा	-13803
▁आदित्य	-13804
▁कुणीही	-13805
▁दिवसभर	-13806
▁पश्चात	-13807
▁पुकारा	-13808
▁फुटबॉल	-13809
▁वाढवली	-13810
▁अनुक्रम	-13811
▁पलिष्टी	-13812
▁प्रशासक	-13813
▁पुनर्वसन	-13814
▁माध्यमिक	-13815
▁मेजबानों	-13816
▁याजकांनी	-13817
▁राजेंद्र	-13818
▁वास्तव्य	-13819
▁निष्क्रिय	-13820
▁मूर्तियाँ	-13821
▁जरूरतमंदों	-13822
▁तुझ्यासाठी	-13823
▁पर्वताच्या	-13824
▁विश्वासाने	-13825
▁कार्यालयाचे	-13826
▁समुद्राच्या	-13827
▁भारतीयांच्या	-13828
36	-13829
नीस	-13830
पोल	-13831
वळी	-13832
करता	-13833
न्शन	-13834
▁2.0	-13835
▁PRA	-13836
▁भरत	-13837
▁राठ	-13838
भावना	-13839
▁काटे	-13840
▁चैंप	-13841
▁जमात	-13842
▁तेरह	-13843
▁धावत	-13844
▁नारी	-13845
▁फुले	-13846
▁बेहो	-13847
▁मोती	-13848
्रीकरण	-13849
▁अपलोड	-13850
▁इंदौर	-13851
▁गरोदर	-13852
▁जगहों	-13853
▁जितने	-13854
▁दुपार	-13855
▁प्रेष	-13856
▁बैठने	-13857
▁यूनिट	-13858
▁सुनता	-13859
▁सेलाह	-13860
▁हटाने	-13861
्राच्या	-13862
▁इंदिरा	-13863
▁घेताना	-13864
▁तत्वों	-13865
▁तस्वीर	-13866
▁न्यायम	-13867
▁पब्लिक	-13868
▁बनलेले	-13869
▁मॉरिशस	-13870
▁किफायती	-13871
▁दर्जाचे	-13872
▁दूतावास	-13873
▁पार्वती	-13874
▁रागावला	-13875
▁आकाशवाणी	-13876
▁उत्पादित	-13877
▁ट्रेकिंग	-13878
▁नागालैंड	-13879
▁लावल्याने	-13880
▁विशेषताएं	-13881
▁शिष्टमंडळ	-13882
▁कशाप्रकारे	-13883
▁टाळण्यासाठी	-13884
▁प्रयत्नांचा	-13885
▁प्रादुर्भाव	-13886
▁दौऱ्यादरम्यान	-13887
अस	-13888
ुव	-13889
त्न	-13890
नवे	-13891
रेब	-13892
शाप	-13893
शिए	-13894
▁कं	-13895
▁ढी	-13896
रानी	-13897
सावा	-13898
सेवे	-13899
हाला	-13900
ोग्य	-13901
▁ओझे	-13902
▁खुर	-13903
▁जीस	-13904
▁तंद	-13905
▁तीर	-13906
▁नाच	-13907
▁फसह	-13908
▁मिझ	-13909
कल्या	-13910
जामिन	-13911
ासमोर	-13912
ॉलॉजी	-13913
▁असोत	-13914
▁गप्प	-13915
▁ट्रॉ	-13916
▁नजदी	-13917
▁नाटक	-13918
▁बकरी	-13919
▁मानो	-13920
▁मिठा	-13921
▁योना	-13922
▁शकलो	-13923
▁होईन	-13924
▁अविभा	-13925
▁काढली	-13926
▁जन्मा	-13927
▁जोडली	-13928
▁तुच्छ	-13929
▁दयाळू	-13930
▁पेरणी	-13931
▁प्याज	-13932
▁बनाती	-13933
▁मारता	-13934
▁वाद्य	-13935
▁स्टार	-13936
▁20,000	-13937
▁अप्रति	-13938
▁अभिन्न	-13939
▁अमिताभ	-13940
▁काळाची	-13941
▁घेण्या	-13942
▁प्याला	-13943
▁प्रताप	-13944
▁लक्षित	-13945
▁अनियमित	-13946
▁आकांक्ष	-13947
▁तात्काळ	-13948
▁मॉड्यूल	-13949
▁सर्वांत	-13950
▁सीरियाई	-13951
▁स्कीइंग	-13952
ल्यापासून	-13953
▁एनटीपीसी	-13954
▁जाण्याचा	-13955
▁प्रक्षेप	-13956
▁योजनांची	-13957
▁रंगाच्या	-13958
▁हिताच्या	-13959
▁निर्दिष्ट	-13960
▁बाहेरच्या	-13961
▁माझ्याजवळ	-13962
▁शिष्यांना	-13963
▁संबंधांना	-13964
▁सरकारांनी	-13965
▁सॉफ्टवेयर	-13966
▁विशाखापट्ट	-13967
▁आपल्याबरोबर	-13968
▁दिल्याबद्दल	-13969
42	-13970
55	-13971
२२	-13972
पदा	-13973
बाध	-13974
य्य	-13975
▁एप	-13976
▁छः	-13977
ंबीर	-13978
बीएस	-13979
बेटी	-13980
मुझे	-13981
ष्ठी	-13982
ांडू	-13983
▁350	-13984
▁आतड	-13985
▁घडत	-13986
▁चलो	-13987
▁ढँक	-13988
▁धडा	-13989
▁मुह	-13990
ंभावर	-13991
दुर्ग	-13992
पत्रा	-13993
मेलेक	-13994
यांचा	-13995
रेस्ट	-13996
स्राव	-13997
▁ईमेल	-13998
▁ऐकतो	-13999
▁ऑडिट	-14000
▁जीता	-14001
▁बनना	-14002
▁बैंड	-14003
ासारखे	-14004
▁उठाते	-14005
▁उठाना	-14006
▁काहीं	-14007
▁धबधबा	-14008
▁नोकरी	-14009
▁रुंदी	-14010
▁लघुपट	-14011
▁वृध्द	-14012
▁शुक्र	-14013
▁सिध्द	-14014
▁आक्रमण	-14015
▁उकसाया	-14016
▁द्रव्य	-14017
▁पुरावा	-14018
▁फुफ्फु	-14019
▁राज्या	-14020
▁विजेता	-14021
▁सार्थक	-14022
▁हेशबोन	-14023
▁खोऱ्यात	-14024
▁दुष्काळ	-14025
▁पोहोचला	-14026
▁बदलत्या	-14027
▁संस्कृत	-14028
▁धर्मशाला	-14029
▁क्रमवारीत	-14030
▁पुरवण्यात	-14031
▁वचनबद्धता	-14032
▁सैनिकांना	-14033
▁क्षेत्राचे	-14034
▁चित्रपटाचे	-14035
▁दहशतवादाचा	-14036
▁व्यावहारिक	-14037
▁सहकार्याची	-14038
▁अधिकाऱ्यांच्या	-14039
32	-14040
34	-14041
94	-14042
एसी	-14043
टीक	-14044
ारो	-14045
ोला	-14046
काही	-14047
डतोब	-14048
दराज	-14049
न्दर	-14050
पाचे	-14051
पाटी	-14052
बॉडी	-14053
यांश	-14054
वेली	-14055
▁550	-14056
▁इंफ	-14057
▁ओपन	-14058
▁चीफ	-14059
▁चेन	-14060
▁छोट	-14061
ांतिक	-14062
▁अप्स	-14063
▁कॉर्	-14064
▁खुरा	-14065
▁ट्रक	-14066
▁बाईं	-14067
▁मनोज	-14068
▁मादक	-14069
▁हमसे	-14070
भारतीय	-14071
सिस्टम	-14072
▁ओळखून	-14073
▁चेतना	-14074
▁जोड़े	-14075
▁तांदू	-14076
▁तिथेच	-14077
▁नमूने	-14078
▁नोएडा	-14079
▁बांधा	-14080
▁मौतें	-14081
▁संसार	-14082
▁हार्ट	-14083
▁होतास	-14084
▁डीबीटी	-14085
▁निगडीत	-14086
▁बढ़ाते	-14087
▁ब्रॉडब	-14088
▁भागाला	-14089
▁मांडले	-14090
▁लसीकरण	-14091
▁हालिया	-14092
▁ऑप्टिकल	-14093
▁चिड़िया	-14094
▁नगरातील	-14095
▁शरीराचे	-14096
▁अगरबत्ती	-14097
▁अस्वीकार	-14098
▁कॉरपोरेट	-14099
▁देवाकडून	-14100
▁पक्षांनी	-14101
▁शत्रूंना	-14102
▁ह्यासाठी	-14103
▁कम्युनिटी	-14104
▁संसदेच्या	-14105
▁चिकित्सकों	-14106
▁उत्पादनांची	-14107
▁गुजरातमध्ये	-14108
▁तुमच्यामध्ये	-14109
▁पुनर्निर्माण	-14110
▁अर्थव्यवस्थेत	-14111
31	-14112
PA	-14113
ईं	-14114
लॉ	-14115
खात	-14116
लेज	-14117
▁आळ	-14118
▁गह	-14119
जोरी	-14120
बीपी	-14121
मलेख	-14122
लोरी	-14123
ल्लम	-14124
विजन	-14125
हाउस	-14126
ूंची	-14127
▁ईएस	-14128
▁उरी	-14129
▁एग्	-14130
▁जीप	-14131
▁बघत	-14132
▁साग	-14133
गतीने	-14134
ग्रेड	-14135
ऱ्‍या	-14136
▁अंडर	-14137
▁अज्ञ	-14138
▁काळे	-14139
▁घड़ी	-14140
▁तिकी	-14141
▁धावा	-14142
▁ध्वज	-14143
▁निगल	-14144
▁पीला	-14145
▁फैली	-14146
▁बंगळ	-14147
▁राशन	-14148
▁एग्री	-14149
▁किस्त	-14150
▁चालून	-14151
▁टाकीन	-14152
▁बंधूं	-14153
▁बनावट	-14154
▁मानवा	-14155
▁राखून	-14156
▁सुनाई	-14157
▁अतिचार	-14158
▁अरविंद	-14159
▁इंग्रज	-14160
▁किनारी	-14161
▁नसबंदी	-14162
▁निभाने	-14163
▁न्यायी	-14164
▁रखूंगा	-14165
▁अनुयायी	-14166
▁अश्विनी	-14167
▁कलात्मक	-14168
▁कारागीर	-14169
▁ताबडतोब	-14170
▁मुकाबले	-14171
▁रहिवासी	-14172
▁सिक्कीम	-14173
▁सीपीएसई	-14174
▁नगराच्या	-14175
▁पाहिल्या	-14176
▁माहितीचे	-14177
▁असुरक्षित	-14178
▁देशव्यापी	-14179
▁निर्मितीत	-14180
▁सुविधांची	-14181
▁निवासस्थान	-14182
▁प्रस्तावों	-14183
▁प्रेरणादायी	-14184
▁कार्यप्रणाली	-14185
▁दृष्टीकोनातून	-14186
▁मुख्यमंत्रियों	-14187
82	-14188
84	-14189
ac	-14190
एएस	-14191
दाई	-14192
राह	-14193
लॉक	-14194
सीन	-14195
ोली	-14196
ांति	-14197
▁अमे	-14198
▁कैम	-14199
▁चंप	-14200
▁चित	-14201
▁जूट	-14202
▁तरच	-14203
▁बुड	-14204
▁मून	-14205
▁शूट	-14206
न्सिल	-14207
मिश्क	-14208
यांचे	-14209
वालों	-14210
▁असीम	-14211
▁केवी	-14212
▁खरीप	-14213
▁खाल्	-14214
▁गवता	-14215
▁चैतन	-14216
▁चौकी	-14217
▁फाइन	-14218
▁फुला	-14219
▁ब्री	-14220
▁रोना	-14221
▁शकला	-14222
▁अरामी	-14223
▁अवसाद	-14224
▁इच्छि	-14225
▁बुलेट	-14226
▁बैठकर	-14227
▁भट्टी	-14228
▁मनाली	-14229
▁अद्यतन	-14230
▁अयोग्य	-14231
▁अर्जुन	-14232
▁कोरोनो	-14233
▁गोळ्या	-14234
▁तांदूळ	-14235
▁दाखवली	-14236
▁पहुँचे	-14237
▁प्राणा	-14238
▁फिटनेस	-14239
▁रोगिणी	-14240
▁उड़ानें	-14241
▁कुळातील	-14242
▁बनाऊंगा	-14243
▁बोलावून	-14244
▁सबलीकरण	-14245
▁कहानियों	-14246
▁खूबसूरती	-14247
▁तिच्यावर	-14248
▁द्राक्षे	-14249
▁फायदेशीर	-14250
▁बनवण्यात	-14251
▁मंगोलिया	-14252
▁सेंद्रिय	-14253
▁अधिकारिता	-14254
▁मार्गदर्श	-14255
▁उपस्थितांना	-14256
▁प्रवेशद्वारा	-14257
▁व्यक्तींच्या	-14258
▁व्यवस्थापनासाठी	-14259
्द	-14260
टीज	-14261
ढाओ	-14262
लोत	-14263
वेज	-14264
▁4.	-14265
▁My	-14266
▁ऊठ	-14267
▁गम	-14268
▁झट	-14269
▁शू	-14270
जैसे	-14271
मवेत	-14272
लीचे	-14273
लेखा	-14274
ाराम	-14275
▁कपड	-14276
▁किम	-14277
▁कौर	-14278
▁गोप	-14279
▁डूब	-14280
▁बुल	-14281
▁रोट	-14282
▁लग्	-14283
▁वान	-14284
-2020	-14285
वलिंग	-14286
▁1200	-14287
▁अँटी	-14288
▁उडान	-14289
▁गुहा	-14290
▁बर्ण	-14291
▁लबान	-14292
▁लाते	-14293
▁लीटर	-14294
▁वागा	-14295
▁शेता	-14296
▁समीप	-14297
▁कब्जा	-14298
▁किसके	-14299
▁घुटने	-14300
▁निदेश	-14301
▁बर्या	-14302
▁रूपों	-14303
▁वाचवू	-14304
▁विजयी	-14305
▁संपर्	-14306
▁हरदीप	-14307
विद्युत	-14308
▁कराधान	-14309
▁दूरस्थ	-14310
▁नौकरों	-14311
▁पर्यवे	-14312
▁बरोबरच	-14313
▁यहोराम	-14314
▁लाभांश	-14315
▁साधनों	-14316
्यांमुळे	-14317
▁कामकाजा	-14318
▁गंभीरता	-14319
▁गुजराती	-14320
▁तेलंगणा	-14321
▁देशांची	-14322
▁वर्धापन	-14323
▁ह्यांची	-14324
▁तुझ्याशी	-14325
▁प्रेक्षक	-14326
▁वस्तूंची	-14327
▁मिळणाऱ्या	-14328
▁सल्लामसलत	-14329
▁निर्णयामुळे	-14330
▁पूर्वानुमान	-14331
▁मंत्रालयाची	-14332
▁आत्मनिर्भरता	-14333
▁कार्यक्रमाचा	-14334
▁संरक्षणासाठी	-14335
▁इस्त्राएलियों	-14336
67	-14337
”.	-14338
ंजर	-14339
तोष	-14340
बास	-14341
यें	-14342
सित	-14343
ातच	-14344
िजन	-14345
▁गत	-14346
▁२१	-14347
CCEA	-14348
धिका	-14349
पंचा	-14350
▁ऑर्	-14351
▁गोद	-14352
▁टिड	-14353
▁मर्	-14354
▁यकृ	-14355
▁रेक	-14356
▁वहन	-14357
▁शॉप	-14358
ुआरों	-14359
▁2009	-14360
▁अन्त	-14361
▁कबीर	-14362
▁कारभ	-14363
▁गावी	-14364
▁गोली	-14365
▁दाने	-14366
▁प्रव	-14367
▁फिली	-14368
▁बताओ	-14369
▁लिखी	-14370
▁लोकं	-14371
▁वयात	-14372
▁हिरा	-14373
ंकरिंग	-14374
्यांसह	-14375
▁अबनेर	-14376
▁अर्थस	-14377
▁आखिरी	-14378
▁घडणार	-14379
▁चाहती	-14380
▁निशंक	-14381
▁पॉइंट	-14382
▁फील्ड	-14383
▁बगीचे	-14384
▁विधाय	-14385
▁विनंत	-14386
▁स्टोन	-14387
विरूध्द	-14388
▁इंडियस	-14389
▁चमकदार	-14390
▁चैनलों	-14391
▁ताज्या	-14392
▁दफनाया	-14393
▁दमिश्क	-14394
▁मेंढरे	-14395
▁युध्दा	-14396
▁रिफाइन	-14397
▁इंग्रजी	-14398
▁खबरदारी	-14399
▁दुष्परि	-14400
▁निर्बाध	-14401
▁समकालीन	-14402
▁दर्शविली	-14403
▁पुनर्गठन	-14404
▁मंडाविया	-14405
▁रेल्वेगा	-14406
▁सांगितला	-14407
▁चंद्रशेखर	-14408
▁प्रेमियों	-14409
▁बंगालच्या	-14410
▁येण्यासाठी	-14411
▁वर्षांसाठी	-14412
▁कॉम्प्लेक्स	-14413
▁गुंतवणुकीला	-14414
▁समुदायाच्या	-14415
▁सेवानिवृत्त	-14416
▁यांच्याबरोबर	-14417
SA	-14418
ech	-14419
बेस	-14420
िएत	-14421
▁एर	-14422
पॅथी	-14423
ॉल्व	-14424
▁पेल	-14425
▁पोर	-14426
▁बैच	-14427
▁लोभ	-14428
▁समृ	-14429
.2018	-14430
भिमुख	-14431
▁आर्म	-14432
▁गरजू	-14433
▁शिंप	-14434
▁शेखर	-14435
ध्यापक	-14436
▁अजमेर	-14437
▁जवळून	-14438
▁दोहरे	-14439
▁पाहणे	-14440
▁मोटार	-14441
▁वर्गी	-14442
▁वाढती	-14443
▁शहाणे	-14444
नापासून	-14445
▁अंमलात	-14446
▁कमजोरी	-14447
▁घरातून	-14448
▁जनगणना	-14449
▁बजावली	-14450
▁बढ़ेगी	-14451
▁रक्तात	-14452
▁रामायण	-14453
▁विकृति	-14454
▁गुरुदेव	-14455
▁पाचव्या	-14456
▁मछुआरों	-14457
▁शरीरावर	-14458
▁स्वतःचे	-14459
▁नियमावली	-14460
▁पवित्रता	-14461
▁मनुष्यों	-14462
▁सुसज्जित	-14463
▁आल्यानंतर	-14464
▁कटिबद्धता	-14465
▁कॉन्क्लेव	-14466
▁मूल्यमापन	-14467
▁डब्ल्यूटीओ	-14468
▁बाजारपेठेत	-14469
▁संसर्गजन्य	-14470
▁प्रवेशद्वार	-14471
▁रुपयांपेक्षा	-14472
फू	-14473
ईंग	-14474
खाल	-14475
तीस	-14476
तुस	-14477
यदि	-14478
सुल	-14479
▁कद	-14480
▁ख़	-14481
▁नु	-14482
ंदना	-14483
डीटी	-14484
तीचा	-14485
ब्री	-14486
साइड	-14487
स्रो	-14488
▁अलं	-14489
▁केश	-14490
▁जले	-14491
▁ज़र	-14492
▁दाट	-14493
▁बचे	-14494
▁भेड	-14495
द्दीन	-14496
पणाचे	-14497
▁2005	-14498
▁आंगन	-14499
▁एंटर	-14500
▁कारक	-14501
▁खावे	-14502
▁जनधन	-14503
▁तृती	-14504
▁पहने	-14505
▁मनोव	-14506
▁महार	-14507
ध्येला	-14508
नात्मक	-14509
वासमोर	-14510
▁India	-14511
▁असंतु	-14512
▁उघडले	-14513
▁कल्पन	-14514
▁केसेस	-14515
▁ठेवता	-14516
▁नाराज	-14517
▁पर्दे	-14518
▁बताएं	-14519
▁मरणार	-14520
▁रागाव	-14521
▁लगाकर	-14522
▁संगमर	-14523
निर्मित	-14524
व्यवसाय	-14525
▁अकाउंट	-14526
▁ऑपरेटर	-14527
▁केनिया	-14528
▁गेलेले	-14529
▁टॅक्सी	-14530
▁बढ़ेगा	-14531
▁बनाएगा	-14532
▁रहूंगा	-14533
▁रेटिंग	-14534
▁सत्रात	-14535
▁हेतूने	-14536
▁उड़ानों	-14537
▁औषधांचा	-14538
▁छुड़ाया	-14539
▁प्राधान	-14540
▁बनाएंगे	-14541
▁बाबेलला	-14542
▁भावनेने	-14543
▁माणसाचा	-14544
▁वनस्पति	-14545
▁कलाकारों	-14546
▁सैन्याला	-14547
▁गुन्हेगार	-14548
▁जीवनाच्या	-14549
▁मैनेजमेंट	-14550
▁सैलानियों	-14551
▁स्त्रियों	-14552
▁सामान्यपणे	-14553
▁प्रकल्पामुळे	-14554
▁व्यवस्थापकीय	-14555
33	-14556
आरओ	-14557
जिए	-14558
ाति	-14559
ड़की	-14560
मीरी	-14561
विते	-14562
िन्स	-14563
ेटिक	-14564
▁नती	-14565
▁बसे	-14566
▁सिड	-14567
▁स्फ	-14568
ंबाबत	-14569
इजेशन	-14570
योजना	-14571
वासीर	-14572
सीएआर	-14573
ानाला	-14574
▁अष्ट	-14575
▁अहमद	-14576
▁आचार	-14577
▁उदया	-14578
▁ठाणे	-14579
▁तरूण	-14580
▁ताजी	-14581
▁त्यौ	-14582
▁दगडा	-14583
▁दलों	-14584
▁दादा	-14585
▁पौंड	-14586
▁मंदी	-14587
▁माला	-14588
▁लखनौ	-14589
▁वक्फ	-14590
▁वाळू	-14591
▁हुकू	-14592
ल्शियम	-14593
ळासाठी	-14594
वामुळे	-14595
▁जुकाम	-14596
▁फोर्ट	-14597
▁हल्का	-14598
▁हेलिक	-14599
▁अंत्यो	-14600
▁तंबाखू	-14601
▁दिलाता	-14602
▁पाहुणे	-14603
▁पिछड़े	-14604
▁प्रेरक	-14605
▁लबानोन	-14606
▁हित्ती	-14607
▁आवृत्ती	-14608
▁देशबांध	-14609
▁बेहतरीन	-14610
▁मिद्यान	-14611
▁राजांचा	-14612
▁वर्षाचा	-14613
▁आपल्यावर	-14614
▁कंबोडिया	-14615
▁जलदगतीने	-14616
▁देशांतील	-14617
▁नामांकित	-14618
▁पासपोर्ट	-14619
▁बिमस्टेक	-14620
▁हस्ताक्ष	-14621
▁आसपासच्या	-14622
▁कुटुंबिया	-14623
▁नेतन्याहू	-14624
▁अश्शूरच्या	-14625
▁ग्राहकांना	-14626
▁दिल्लीच्या	-14627
▁निर्मितीला	-14628
▁पर्यटकांच्या	-14629
▁नियमशास्त्राचे	-14630
PT	-14631
एआई	-14632
जेर	-14633
बीज	-14634
संग	-14635
ियत	-14636
▁थि	-14637
▁वो	-14638
एनसी	-14639
लेटर	-14640
्रेल	-14641
▁(19	-14642
▁अटक	-14643
▁एलो	-14644
▁कसम	-14645
▁धाव	-14646
▁नशी	-14647
▁बगल	-14648
▁रॉक	-14649
▁विघ	-14650
भगवान	-14651
शुतोष	-14652
ोत्सव	-14653
▁अकरा	-14654
▁इनका	-14655
▁ऐकला	-14656
▁ओमान	-14657
▁कराई	-14658
▁गटात	-14659
▁झंडी	-14660
▁पैकी	-14661
▁ब्लड	-14662
▁भाला	-14663
▁योनि	-14664
▁रोका	-14665
▁लड़ा	-14666
▁लष्क	-14667
▁हलके	-14668
▁एक्शन	-14669
▁फार्म	-14670
▁फिलिप	-14671
▁बोलाव	-14672
▁यहुदी	-14673
▁सज्जन	-14674
▁सरसों	-14675
▁आकाशात	-14676
▁डिफेंस	-14677
▁शाखाओं	-14678
▁सामाईक	-14679
▁स्नायू	-14680
▁";&#39;	-14681
▁चित्रित	-14682
▁ज्यांचे	-14683
▁समझौतों	-14684
▁स्वाधीन	-14685
ण्यामध्ये	-14686
▁मोबिलिटी	-14687
▁न्यूयॉर्क	-14688
▁स्वर्गातून	-14689
▁आरोग्यविषयक	-14690
▁करणाऱ्यांना	-14691
▁इस्राएलमध्ये	-14692
▁केंद्रस्थानी	-14693
▁मंत्रिस्तरीय	-14694
--	-14695
68	-14696
78	-14697
DR	-14698
TC	-14699
av	-14700
end	-14701
माथ	-14702
ळात	-14703
साब	-14704
ापे	-14705
▁88	-14706
▁NH	-14707
गिंग	-14708
तीची	-14709
पाती	-14710
राहो	-14711
वापर	-14712
शाळा	-14713
ोदरा	-14714
▁जगू	-14715
▁जोश	-14716
▁रेत	-14717
नॅशनल	-14718
पादित	-14719
राणिक	-14720
ुत्तर	-14721
▁अधिप	-14722
▁आयआर	-14723
▁ऑफिस	-14724
▁करुब	-14725
▁गाठी	-14726
▁गाणे	-14727
▁चंदन	-14728
▁चौबे	-14729
▁तारे	-14730
▁द्रव	-14731
▁पोशा	-14732
टीच्या	-14733
▁किर्ग	-14734
▁डालने	-14735
▁तकलीफ	-14736
▁प्रबल	-14737
▁फीसदी	-14738
▁फैक्ट	-14739
▁वेस्ट	-14740
▁सत्ते	-14741
▁साहाय	-14742
▁स्नाय	-14743
▁स्पेन	-14744
स्वार्थ	-14745
▁अतिसार	-14746
▁अहिंसा	-14747
▁आयोजना	-14748
▁गोल्डन	-14749
▁टाकावे	-14750
▁परिचार	-14751
▁पांढरे	-14752
▁मांडला	-14753
▁वृक्षा	-14754
▁पडताळणी	-14755
▁पाहिजेस	-14756
▁पौराणिक	-14757
▁मागच्या	-14758
▁संग्रहण	-14759
▁स्पेक्ट	-14760
▁हस्तकला	-14761
विषयीच्या	-14762
▁परिषदेने	-14763
▁बोलाविले	-14764
▁सचिवांनी	-14765
▁स्वैच्छिक	-14766
▁अभिव्यक्ति	-14767
▁गतिविधियाँ	-14768
▁प्रदेशच्या	-14769
▁प्रवासियों	-14770
▁अभियानाच्या	-14771
▁आंध्रप्रदेश	-14772
▁आव्हानात्मक	-14773
▁कोरोनोवायरस	-14774
▁डेव्हलपमेंट	-14775
▁गुंतवणुकीच्या	-14776
ंडर	-14777
भेद	-14778
भोग	-14779
शलम	-14780
शार	-14781
ेशर	-14782
चाली	-14783
पाचा	-14784
मेरा	-14785
रुग्	-14786
सावे	-14787
स्पी	-14788
▁GeM	-14789
▁छुआ	-14790
▁रजि	-14791
▁लिन	-14792
▁वोट	-14793
▁अरबी	-14794
▁आणतो	-14795
▁कळते	-14796
▁क़ान	-14797
▁काठम	-14798
▁जड़ी	-14799
▁ताजे	-14800
▁पथरी	-14801
▁बूँद	-14802
रीत्या	-14803
▁खतरों	-14804
▁परतले	-14805
▁प्लॅट	-14806
▁विनोद	-14807
▁संमेल	-14808
▁हिंसक	-14809
कामध्ये	-14810
▁करारात	-14811
▁किंगडम	-14812
▁खेळाडू	-14813
▁चर्चेत	-14814
▁देखेगा	-14815
▁निकाली	-14816
▁नीलामी	-14817
▁बरोबरी	-14818
▁बिगाड़	-14819
▁सीमेवर	-14820
▁आनंदाची	-14821
▁उपन्यास	-14822
▁कितीतरी	-14823
▁प्रजाती	-14824
▁रवींद्र	-14825
▁सांसदों	-14826
▁स्तनपान	-14827
▁चट्टानों	-14828
▁डॉक्टर्स	-14829
▁दूरदर्शी	-14830
▁प्रदीर्घ	-14831
▁प्रदूषित	-14832
▁वंशजांना	-14833
▁सेवेच्या	-14834
▁दूरदृष्टी	-14835
▁मनुष्याचा	-14836
▁रस्त्याने	-14837
▁रेगिस्तान	-14838
▁सगळ्यांना	-14839
▁सन्माननीय	-14840
▁युवकांच्या	-14841
▁अर्थशास्त्र	-14842
▁परिवर्तनकारी	-14843
▁प्रकल्पासाठी	-14844
.)	-14845
FC	-14846
ईई	-14847
गळ	-14848
▁h	-14849
ऊंड	-14850
चाच	-14851
जिद	-14852
टित	-14853
डेड	-14854
परा	-14855
▁82	-14856
आईआई	-14857
धाने	-14858
न्ने	-14859
पाची	-14860
रजमा	-14861
ष्णा	-14862
▁आबे	-14863
▁चरम	-14864
▁ठिक	-14865
▁डाइ	-14866
▁तशा	-14867
▁दूं	-14868
▁नशे	-14869
▁पडा	-14870
▁बघू	-14871
▁भाड	-14872
▁भूष	-14873
एनएएम	-14874
निहार	-14875
हायचे	-14876
▁असती	-14877
▁उड़ा	-14878
▁गीता	-14879
▁ग्रं	-14880
▁घेईन	-14881
▁ठरली	-14882
▁डाली	-14883
▁तणाव	-14884
▁नाइट	-14885
▁पिका	-14886
▁पैनल	-14887
▁फरीस	-14888
▁बदलत	-14889
▁मेजर	-14890
▁संघा	-14891
▁सभेत	-14892
▁सराव	-14893
▁स्वर	-14894
िएतनाम	-14895
▁आभूषण	-14896
▁किरेन	-14897
▁गर्भग	-14898
▁दिलेस	-14899
▁नामित	-14900
▁पहारे	-14901
▁बाळगा	-14902
▁बेहोश	-14903
▁मिळणे	-14904
▁युगात	-14905
▁वाचले	-14906
▁समवेत	-14907
▁सादोक	-14908
▁अंधेरा	-14909
▁क्षमते	-14910
▁प्रहार	-14911
▁मनरेगा	-14912
▁सांभाळ	-14913
यांमध्ये	-14914
्यांबाबत	-14915
▁खातरजमा	-14916
▁चंद्रमा	-14917
▁त्यौहार	-14918
▁न्यायनि	-14919
▁बातम्या	-14920
▁महासचिव	-14921
▁मुदतवाढ	-14922
▁विरुध्द	-14923
▁शिवलिंग	-14924
▁घेणाऱ्या	-14925
▁फिलिस्ती	-14926
▁बालविकास	-14927
▁योद्धाओं	-14928
▁वाडवडिला	-14929
▁सांगताना	-14930
▁सांगायचे	-14931
▁इस्राएलवर	-14932
▁चुनौतियां	-14933
▁त्यांनाही	-14934
▁पाठवण्यात	-14935
▁पातळीवरील	-14936
▁व्यवस्थेत	-14937
▁साम्राज्य	-14938
▁अल्पसंख्या	-14939
▁डब्ल्यूएचओ	-14940
▁पाणीपुरवठा	-14941
▁मार्गक्रमण	-14942
▁संदर्भातील	-14943
▁सहकार्याचे	-14944
▁क्षतिग्रस्त	-14945
▁नागरिकांसाठी	-14946
88	-14947
SE	-14948
णं	-14949
मट	-14950
ॅग	-14951
RDO	-14952
nic	-14953
छित	-14954
पत्	-14955
लिस	-14956
ोरो	-14957
ौदा	-14958
▁ओम	-14959
▁नथ	-14960
दर्द	-14961
ुष्ट	-14962
▁1,0	-14963
▁अँग	-14964
▁इशा	-14965
▁किड	-14966
▁चाम	-14967
▁जीओ	-14968
▁डाळ	-14969
▁फरी	-14970
▁बनत	-14971
▁मरु	-14972
▁मुक	-14973
नमेंट	-14974
यतनाम	-14975
वणारी	-14976
िनेंट	-14977
▁CSIR	-14978
▁गाइड	-14979
▁गुणा	-14980
▁जावी	-14981
▁जूते	-14982
▁भाजी	-14983
▁मधुम	-14984
▁मसाज	-14985
▁लावू	-14986
▁वयोग	-14987
▁वाया	-14988
▁विमु	-14989
▁विहि	-14990
▁असमान	-14991
▁आढळते	-14992
▁एकंदर	-14993
▁गाड़ी	-14994
▁चालला	-14995
▁जीर्ण	-14996
▁टाकील	-14997
▁थांबा	-14998
▁पशुओं	-14999
▁पैलेस	-15000
▁प्रगट	-15001
▁बदलले	-15002
▁भोपाल	-15003
▁रूबेन	-15004
▁संतान	-15005
▁अमालेक	-15006
▁अय्यूब	-15007
▁उच्चार	-15008
▁कोल्हा	-15009
▁जाणारा	-15010
▁जानमाल	-15011
▁ठिकाणे	-15012
▁ड्रग्स	-15013
▁धान्या	-15014
▁नादारी	-15015
▁रविवार	-15016
▁वर्णित	-15017
▁स्नायु	-15018
▁खजुराहो	-15019
▁गव्हर्न	-15020
▁गोत्रों	-15021
▁जन्माला	-15022
▁जाण्यास	-15023
▁धोरणाचा	-15024
▁पट्टिका	-15025
▁माइक्रो	-15026
▁स्मरणात	-15027
▁अनुकरणीय	-15028
▁अविभाज्य	-15029
▁एनडीआरएफ	-15030
▁दृष्ट्या	-15031
▁नौकरियों	-15032
▁बनलेल्या	-15033
▁बेंजामिन	-15034
▁भरलेल्या	-15035
▁मूत्राशय	-15036
▁याजकांना	-15037
▁येणार्या	-15038
▁रिपब्लिक	-15039
▁अपराधियों	-15040
▁काळामध्ये	-15041
▁चर्चासत्र	-15042
▁स्पोर्ट्स	-15043
ल्याप्रमाणे	-15044
▁कार्यात्मक	-15045
▁प्रकल्पाची	-15046
▁प्राध्यापक	-15047
▁मानवतेच्या	-15048
▁अनुप्रयोगों	-15049
▁इस्राएलमधील	-15050
▁त्याच्याजवळ	-15051
▁पर्यटनाच्या	-15052
▁यांच्यासाठी	-15053
▁हस्ताक्षरित	-15054
▁अधिकाऱ्यांची	-15055
▁विद्यापीठाच्या	-15056
DA	-15057
ईर	-15058
शक	-15059
हु	-15060
-12	-15061
.50	-15062
सरु	-15063
सिम	-15064
स्ड	-15065
ैरे	-15066
्ली	-15067
▁71	-15068
प्ला	-15069
सादा	-15070
▁III	-15071
▁ऑरो	-15072
▁कसो	-15073
▁डिम	-15074
▁धुत	-15075
▁बही	-15076
▁लिं	-15077
▁लोड	-15078
कीर्ण	-15079
र्दकै	-15080
ेलखंड	-15081
▁कराव	-15082
▁जावा	-15083
▁जिगर	-15084
▁झरने	-15085
▁तमाम	-15086
▁पायर	-15087
▁बेंच	-15088
▁माँग	-15089
▁यादव	-15090
▁रीढ़	-15091
कल्पना	-15092
विलेले	-15093
▁अमंगळ	-15094
▁केलेत	-15095
▁क्रूज	-15096
▁त्रिश	-15097
▁दशकात	-15098
▁दसवें	-15099
▁निशान	-15100
▁प्रमो	-15101
▁मोक्ष	-15102
▁सांधे	-15103
▁हाकिम	-15104
▁घुटनों	-15105
▁डैनियल	-15106
▁तिमाही	-15107
▁पुरेशा	-15108
▁बनविले	-15109
▁सैन्या	-15110
▁सोन्या	-15111
▁आजपासून	-15112
▁डाउनलोड	-15113
▁पोहोचेल	-15114
▁मोर्दकै	-15115
▁वर्चुअल	-15116
▁वृक्षों	-15117
▁सांगावे	-15118
▁अनावश्यक	-15119
▁कोटींहून	-15120
▁टिंकरिंग	-15121
▁फरीसियों	-15122
▁वेळापत्र	-15123
▁सर्विसेज	-15124
▁ठेवण्याची	-15125
▁प्राणायाम	-15126
▁मध्यवर्ती	-15127
▁लक्षद्वीप	-15128
▁लांबीच्या	-15129
▁लोकांकडून	-15130
▁परियोजनाएँ	-15131
५०	-15132
.06	-15133
ज़ी	-15134
बोध	-15135
▁87	-15136
जीके	-15137
बूतर	-15138
र्वा	-15139
ोमोट	-15140
ोसिस	-15141
▁अहज	-15142
▁पैल	-15143
▁मगर	-15144
▁माध	-15145
दिवशी	-15146
संवाद	-15147
स्पेस	-15148
▁उठने	-15149
▁एफटी	-15150
▁जलसं	-15151
▁जाईन	-15152
▁डीजी	-15153
▁डेरा	-15154
▁पारा	-15155
▁पॉवर	-15156
▁राइड	-15157
▁शोषण	-15158
मार्गा	-15159
▁अन्वे	-15160
▁अपघात	-15161
▁उभ्या	-15162
▁कराना	-15163
▁करूया	-15164
▁कारणी	-15165
▁कोनों	-15166
▁छिद्र	-15167
▁टाइगर	-15168
▁नागाल	-15169
▁ब्रेक	-15170
▁मीनार	-15171
▁यादीत	-15172
▁राजेश	-15173
▁सवारी	-15174
▁सुदूर	-15175
▁स्क्र	-15176
▁स्पीड	-15177
कांच्या	-15178
▁15,000	-15179
▁छोड़ने	-15180
▁पडद्या	-15181
▁परिक्ष	-15182
▁बांधिल	-15183
▁येणारी	-15184
▁विस्मय	-15185
▁सैलानी	-15186
▁गलियारे	-15187
▁ब्रिटेन	-15188
▁युध्दात	-15189
▁राजाकडे	-15190
▁शिफारसी	-15191
▁सणाच्या	-15192
▁चार्टर्ड	-15193
▁देवेंद्र	-15194
▁मेमोरियल	-15195
▁रेल्वेचे	-15196
▁विश्वनाथ	-15197
▁सूर्योदय	-15198
▁स्वयंपाक	-15199
▁हितासाठी	-15200
▁नाविन्यता	-15201
▁उपयोगकर्ता	-15202
▁परिवर्तनों	-15203
▁उद्यानाच्या	-15204
▁एकमेकांच्या	-15205
▁शांततापूर्ण	-15206
▁शोधण्यासाठी	-15207
▁संग्रहालयात	-15208
▁कंपन्यांच्या	-15209
षी	-15210
अनु	-15211
टेज	-15212
पक्	-15213
लाश	-15214
वुड	-15215
ापि	-15216
inis	-15217
करघा	-15218
टर्स	-15219
टीएम	-15220
फ्यू	-15221
बाने	-15222
मधली	-15223
रोहर	-15224
वकों	-15225
▁115	-15226
▁MoS	-15227
▁अबू	-15228
▁दही	-15229
▁दोर	-15230
▁मोल	-15231
▁रजत	-15232
▁सका	-15233
antri	-15234
संपदा	-15235
▁अनिल	-15236
▁असाच	-15237
▁उक्त	-15238
▁खास्	-15239
▁ट्री	-15240
▁नाना	-15241
▁बनाओ	-15242
▁रेकी	-15243
▁वागत	-15244
▁सीधी	-15245
प्रमुख	-15246
▁आजकाल	-15247
▁एलीशा	-15248
▁क्लिन	-15249
▁चढ़ाई	-15250
▁जाणतो	-15251
▁जुलाब	-15252
▁पकडले	-15253
▁बेचने	-15254
▁मनोरम	-15255
▁शल्लू	-15256
▁शिबिर	-15257
▁सफारी	-15258
▁सांगड	-15259
▁सिंहा	-15260
▁सेनान	-15261
▁हथिया	-15262
▁हुकूम	-15263
▁होशील	-15264
ग्रामीण	-15265
▁उदघाटन	-15266
▁कुणाला	-15267
▁ठिकाणा	-15268
▁देशांत	-15269
▁निधीची	-15270
▁नेमणूक	-15271
▁राजवाड	-15272
▁राज्यघ	-15273
▁शहराला	-15274
मंत्रालय	-15275
▁अनुदाना	-15276
▁दीनदयाळ	-15277
▁पाठपुरा	-15278
▁पूर्वसं	-15279
▁प्रेक्ष	-15280
▁लक्ष्मण	-15281
▁लाखाहून	-15282
▁लाभप्रद	-15283
▁सतर्कता	-15284
▁आराधनालय	-15285
▁एलिय्याह	-15286
▁जोडण्यात	-15287
▁तुरुंगात	-15288
▁धोकादायक	-15289
▁राज्याचे	-15290
▁वंशाच्या	-15291
▁शिकवणुकी	-15292
▁हॉटस्पॉट	-15293
ण्यापेक्षा	-15294
पर्यंतच्या	-15295
▁एप्लिकेशन	-15296
▁घरांमध्ये	-15297
▁न्यायाधिक	-15298
▁लोकसंख्ये	-15299
▁वापरण्यात	-15300
▁सेनानियों	-15301
▁स्वीकारले	-15302
▁अम्मोनियों	-15303
▁तुमच्यातील	-15304
▁पृथ्वीच्या	-15305
▁प्रजातियों	-15306
▁स्पेक्ट्रम	-15307
▁अभ्यासक्रमा	-15308
▁कॉलेस्ट्रॉल	-15309
▁महामारीमुळे	-15310
▁राष्ट्रव्यापी	-15311
ig	-15312
इए	-15313
डल	-15314
शै	-15315
सला	-15316
्ता	-15317
▁81	-15318
▁ओल	-15319
▁रच	-15320
ंतील	-15321
अप्स	-15322
एमएफ	-15323
चनों	-15324
तिया	-15325
लिया	-15326
ळेचे	-15327
ष्मा	-15328
सीबत	-15329
स्मर	-15330
▁गैल	-15331
▁जुळ	-15332
▁झेल	-15333
▁तरल	-15334
▁नवस	-15335
▁नोब	-15336
▁पॅन	-15337
स्युट	-15338
▁अम्ब	-15339
▁कोमल	-15340
▁नीली	-15341
▁पड़ी	-15342
▁पढाओ	-15343
▁मिसळ	-15344
ड़ियाँ	-15345
▁आँतों	-15346
▁काटने	-15347
▁कार्ट	-15348
▁क्रीम	-15349
▁गेम्स	-15350
▁घृणित	-15351
▁चित्त	-15352
▁जगाने	-15353
▁जितनी	-15354
▁धरोहर	-15355
▁प्यास	-15356
▁बदलना	-15357
▁मशहूर	-15358
▁राबवत	-15359
सभेच्या	-15360
▁काउंटर	-15361
▁कानावर	-15362
▁गरजेवर	-15363
▁ठहराया	-15364
▁परिक्र	-15365
▁भेड़ों	-15366
▁मनोरंज	-15367
▁मुसीबत	-15368
▁राजकोट	-15369
▁लाइनों	-15370
▁व्यतीत	-15371
▁शर्करा	-15372
▁हातभार	-15373
▁अनिवासी	-15374
▁अलीकडेच	-15375
▁उदाहरणे	-15376
▁एकजुटता	-15377
▁जलशक्ती	-15378
▁नीतिमान	-15379
्यांबरोबर	-15380
▁अंत्योदय	-15381
▁उपक्रमों	-15382
▁घराण्यात	-15383
▁जाणार्या	-15384
▁मध्यमवर्	-15385
▁रिफाइनरी	-15386
▁संतुष्टि	-15387
▁कार्यालये	-15388
▁निर्देशों	-15389
▁प्रसिद्धी	-15390
▁मनुष्याने	-15391
▁आर्थराइटिस	-15392
▁दुष्परिणाम	-15393
▁प्लॅटफॉर्म	-15394
▁सार्वत्रिक	-15395
▁अमेरिकेच्या	-15396
▁रस्त्याच्या	-15397
-9	-15398
61	-15399
os	-15400
इश	-15401
और	-15402
eva	-15403
खोर	-15404
गाळ	-15405
ज़े	-15406
पुढ	-15407
फाल	-15408
हाल	-15409
ालय	-15410
ाशी	-15411
करों	-15412
मधला	-15413
व्हर	-15414
हाइड	-15415
▁110	-15416
▁चॉक	-15417
▁टाय	-15418
▁पती	-15419
▁वफा	-15420
क्काम	-15421
ताबिक	-15422
मात्र	-15423
्राचे	-15424
्सटेक	-15425
▁इन्स	-15426
▁उठला	-15427
▁कमाई	-15428
▁ट्यू	-15429
▁नेवि	-15430
▁बनती	-15431
▁बहने	-15432
▁बहीण	-15433
▁मौके	-15434
▁रावत	-15435
▁सुखा	-15436
प्रेशन	-15437
ल्याचा	-15438
स्त्रे	-15439
▁अम्मी	-15440
▁एनडीए	-15441
▁ग्रीक	-15442
▁नावीन	-15443
▁भोपाळ	-15444
▁मनाला	-15445
▁रिफंड	-15446
▁लागून	-15447
▁वगळता	-15448
▁संघीय	-15449
▁साबुन	-15450
▁सारखी	-15451
▁सैतान	-15452
▁सोचते	-15453
▁स्थळे	-15454
वार्षिक	-15455
▁अगोदरच	-15456
▁अब्राम	-15457
▁आशुतोष	-15458
▁कालखंड	-15459
▁कितीही	-15460
▁गुजरने	-15461
▁परिपक्	-15462
▁मर्दखय	-15463
▁शॉपिंग	-15464
▁सुन्दर	-15465
▁घटकांना	-15466
▁चैंपियन	-15467
▁पापांची	-15468
▁मुताबिक	-15469
▁शस्त्रा	-15470
▁सहाव्या	-15471
▁गर्मियों	-15472
▁ट्रायफेड	-15473
▁निर्भरता	-15474
▁स्वेच्छा	-15475
▁हरिद्वार	-15476
▁जनजातियों	-15477
▁प्रशंसनीय	-15478
▁रणनीतियों	-15479
▁रामेश्वरम	-15480
▁वर्षानंतर	-15481
▁आतंकवादियों	-15482
▁परस्परांच्या	-15483
54	-15484
.10	-15485
क्‍	-15486
जिट	-15487
दरी	-15488
पदी	-15489
लाच	-15490
शंस	-15491
शले	-15492
सून	-15493
्रन	-15494
▁5.	-15495
[...]
